// Parameter: fc1.bias
// Shape: [16]
// Format: QS2_13 (16-bit signed, 2 integer bits, 13 fractional bits)
// Range: [-4.000000, 3.999878], Resolution: 7.999878
// Total values: 16
//
001B  // [0] = 0.003296
2574  // [1] = 1.170410
1D8C  // [2] = 0.923340
002F  // [3] = 0.005737
164F  // [4] = 0.697144
10F3  // [5] = 0.529663
147B  // [6] = 0.640015
125C  // [7] = 0.573730
178B  // [8] = 0.735718
18C4  // [9] = 0.773926
2732  // [10] = 1.224854
1E5F  // [11] = 0.949097
20DE  // [12] = 1.027100
0B33  // [13] = 0.349976
0517  // [14] = 0.159058
FE26  // [15] = -0.057861
