// Parameter: fc2.weight
// Shape: [4, 16]
// Format: QS2_13 (16-bit signed, 2 integer bits, 13 fractional bits)
// Range: [-4.000000, 3.999878], Resolution: 7.999878
// Total values: 64
//
F3B8  // [0] = -0.383789
1DEE  // [1] = 0.935303
16DD  // [2] = 0.714478
F6DB  // [3] = -0.285767
25AD  // [4] = 1.177368
2496  // [5] = 1.143311
158A  // [6] = 0.673096
2CAD  // [7] = 1.396118
3508  // [8] = 1.657227
2075  // [9] = 1.014282
057E  // [10] = 0.171631
0C60  // [11] = 0.386719
249D  // [12] = 1.144165
EB20  // [13] = -0.652344
FF3A  // [14] = -0.024170
E460  // [15] = -0.863281
00EA  // [16] = 0.028564
CEE1  // [17] = -1.535034
D7FD  // [18] = -1.250366
11AA  // [19] = 0.552002
E4BC  // [20] = -0.852051
E864  // [21] = -0.737793
E309  // [22] = -0.905151
E99C  // [23] = -0.699707
E07E  // [24] = -0.984619
D353  // [25] = -1.396118
E94F  // [26] = -0.709106
E8D4  // [27] = -0.724121
D9FE  // [28] = -1.187744
0B7F  // [29] = 0.359253
09A3  // [30] = 0.301147
1A1E  // [31] = 0.816162
0A8C  // [32] = 0.329590
2D33  // [33] = 1.412476
27AB  // [34] = 1.239624
F5C2  // [35] = -0.320068
1DD0  // [36] = 0.931641
170C  // [37] = 0.720215
34AF  // [38] = 1.646362
1DF4  // [39] = 0.936035
149F  // [40] = 0.644409
2CF3  // [41] = 1.404663
124D  // [42] = 0.571899
1C92  // [43] = 0.892822
227D  // [44] = 1.077759
EA72  // [45] = -0.673584
E3E6  // [46] = -0.878174
DB2A  // [47] = -1.151123
1262  // [48] = 0.574463
EE18  // [49] = -0.559570
F3B5  // [50] = -0.384155
088C  // [51] = 0.267090
EFC4  // [52] = -0.507324
EB97  // [53] = -0.637817
FCBE  // [54] = -0.101807
E93C  // [55] = -0.711426
D320  // [56] = -1.402344
E93B  // [57] = -0.711548
FCD2  // [58] = -0.099365
07A7  // [59] = 0.239136
F668  // [60] = -0.299805
0868  // [61] = 0.262695
F498  // [62] = -0.356445
0805  // [63] = 0.250610
