// Parameter: fc1.weight
// Shape: [32, 4]
// Format: QS2_13 (16-bit signed, 2 integer bits, 13 fractional bits)
// Range: [-4.000000, 3.999878], Resolution: 7.999878
// Total values: 128
//
1B72  // [0] = 0.857666
014C  // [1] = 0.040527
DF55  // [2] = -1.020874
FECE  // [3] = -0.037354
DBF1  // [4] = -1.126831
F843  // [5] = -0.241821
0A13  // [6] = 0.314819
FDD5  // [7] = -0.067749
0035  // [8] = 0.006470
FF09  // [9] = -0.030151
FDC7  // [10] = -0.069458
FE54  // [11] = -0.052246
FDA5  // [12] = -0.073608
F712  // [13] = -0.279053
E6FD  // [14] = -0.781616
F87C  // [15] = -0.234863
FE20  // [16] = -0.058594
F7F5  // [17] = -0.251343
EF09  // [18] = -0.530151
F98B  // [19] = -0.201782
0843  // [20] = 0.258179
F82F  // [21] = -0.244263
03B6  // [22] = 0.115967
F9A8  // [23] = -0.198242
1C9F  // [24] = 0.894409
0D70  // [25] = 0.419922
1254  // [26] = 0.572754
07AC  // [27] = 0.239746
E65E  // [28] = -0.801025
F2F7  // [29] = -0.407349
008E  // [30] = 0.017334
F896  // [31] = -0.231689
FF50  // [32] = -0.021484
02DC  // [33] = 0.089355
0BAE  // [34] = 0.364990
0270  // [35] = 0.076172
19AE  // [36] = 0.802490
0989  // [37] = 0.297974
F5DB  // [38] = -0.317017
06FC  // [39] = 0.218262
1BC1  // [40] = 0.867310
012B  // [41] = 0.036499
F7FB  // [42] = -0.250610
FEC1  // [43] = -0.038940
DA09  // [44] = -1.186401
E767  // [45] = -0.768677
E812  // [46] = -0.747803
EF72  // [47] = -0.517334
0771  // [48] = 0.232544
FA0B  // [49] = -0.186157
D51D  // [50] = -1.340210
F646  // [51] = -0.303955
0EF1  // [52] = 0.466919
1115  // [53] = 0.533813
16F2  // [54] = 0.717041
0B5E  // [55] = 0.355225
0630  // [56] = 0.193359
F055  // [57] = -0.489624
F2C4  // [58] = -0.413574
0618  // [59] = 0.190430
015B  // [60] = 0.042358
0011  // [61] = 0.002075
0AB6  // [62] = 0.334717
00A8  // [63] = 0.020508
DC8F  // [64] = -1.107544
EBB5  // [65] = -0.634155
DA93  // [66] = -1.169556
F1D7  // [67] = -0.442505
02D6  // [68] = 0.088623
0056  // [69] = 0.010498
F775  // [70] = -0.266968
FFC4  // [71] = -0.007324
0D75  // [72] = 0.420532
F73D  // [73] = -0.273804
E86B  // [74] = -0.736938
F556  // [75] = -0.333252
16EC  // [76] = 0.716309
FDF7  // [77] = -0.063599
F1E1  // [78] = -0.441284
FC63  // [79] = -0.112915
0062  // [80] = 0.011963
023E  // [81] = 0.070068
10B1  // [82] = 0.521606
02CD  // [83] = 0.087524
10EF  // [84] = 0.529175
1196  // [85] = 0.549561
358C  // [86] = 1.673340
0F00  // [87] = 0.468750
DCAC  // [88] = -1.104004
E660  // [89] = -0.800781
C4F9  // [90] = -1.844604
EDE8  // [91] = -0.565430
2A2E  // [92] = 1.318115
1C33  // [93] = 0.881226
2BF6  // [94] = 1.373779
1382  // [95] = 0.609619
1E32  // [96] = 0.943604
10C7  // [97] = 0.524292
F034  // [98] = -0.493652
0814  // [99] = 0.252441
00D0  // [100] = 0.025391
05A8  // [101] = 0.176758
F578  // [102] = -0.329102
027B  // [103] = 0.077515
EADF  // [104] = -0.660278
EE9C  // [105] = -0.543457
F730  // [106] = -0.275391
FA16  // [107] = -0.184814
1A45  // [108] = 0.820923
0058  // [109] = 0.010742
1797  // [110] = 0.737183
0883  // [111] = 0.265991
FD3A  // [112] = -0.086670
004E  // [113] = 0.009521
0B79  // [114] = 0.358521
0150  // [115] = 0.041016
E0A4  // [116] = -0.979980
E85B  // [117] = -0.738892
C9B5  // [118] = -1.696655
EF52  // [119] = -0.521240
1032  // [120] = 0.506104
100D  // [121] = 0.501587
FF05  // [122] = -0.030640
09E7  // [123] = 0.309448
0ACF  // [124] = 0.337769
14D7  // [125] = 0.651245
1961  // [126] = 0.793091
0CF7  // [127] = 0.405151
