// Parameter: fc1.weight
// Shape: [16, 4]
// Format: QS2_13 (16-bit signed, 2 integer bits, 13 fractional bits)
// Range: [-4.000000, 3.999878], Resolution: 7.999878
// Total values: 64
//
F63B  // [0] = -0.305298
F99D  // [1] = -0.199585
0482  // [2] = 0.140869
FB04  // [3] = -0.155762
09EB  // [4] = 0.309937
0914  // [5] = 0.283691
0E4E  // [6] = 0.447021
0633  // [7] = 0.193726
0178  // [8] = 0.045898
063D  // [9] = 0.194946
17A6  // [10] = 0.739014
061B  // [11] = 0.190796
0223  // [12] = 0.066772
0FEE  // [13] = 0.497803
2489  // [14] = 1.141724
0C36  // [15] = 0.381592
027C  // [16] = 0.077637
031C  // [17] = 0.097168
0048  // [18] = 0.008789
02FF  // [19] = 0.093628
F51E  // [20] = -0.340088
FC40  // [21] = -0.117188
0374  // [22] = 0.107910
FEE2  // [23] = -0.034912
FF5A  // [24] = -0.020264
FF7C  // [25] = -0.016113
F343  // [26] = -0.398071
FF00  // [27] = -0.031250
F487  // [28] = -0.358521
F65D  // [29] = -0.301147
EEE9  // [30] = -0.534058
F872  // [31] = -0.236084
023A  // [32] = 0.069580
03BF  // [33] = 0.117065
1684  // [34] = 0.703613
047C  // [35] = 0.140137
FC4E  // [36] = -0.115479
FE10  // [37] = -0.060547
FF92  // [38] = -0.013428
00C1  // [39] = 0.023560
14C1  // [40] = 0.648560
08CE  // [41] = 0.275146
F24F  // [42] = -0.427856
0348  // [43] = 0.102539
081C  // [44] = 0.253418
07B9  // [45] = 0.241333
F395  // [46] = -0.388062
053A  // [47] = 0.163330
0B28  // [48] = 0.348633
0610  // [49] = 0.189453
00DE  // [50] = 0.027100
0362  // [51] = 0.105713
1AAA  // [52] = 0.833252
0DA6  // [53] = 0.426514
035C  // [54] = 0.104980
0772  // [55] = 0.232666
0053  // [56] = 0.010132
0760  // [57] = 0.230469
2885  // [58] = 1.266235
0B2E  // [59] = 0.349365
07CE  // [60] = 0.243896
024E  // [61] = 0.072021
2251  // [62] = 1.072388
0564  // [63] = 0.168457
