// fc2 test weights: 4 outputs x 8 inputs = 32 values
// Simple pattern
00000400
00000400
00000400
00000400
00000400
00000400
00000400
00000400
00000800
00000800
00000800
00000800
00000800
00000800
00000800
00000800
FFFFFC00
FFFFFC00
FFFFFC00
FFFFFC00
FFFFFC00
FFFFFC00
FFFFFC00
FFFFFC00
FFFFF800
FFFFF800
FFFFF800
FFFFF800
FFFFF800
FFFFF800
FFFFF800
FFFFF800
