// Parameter: fc_out.weight
// Shape: [2, 4]
// Format: QS2_13 (16-bit signed, 2 integer bits, 13 fractional bits)
// Range: [-4.000000, 3.999878], Resolution: 7.999878
// Total values: 8
//
186C  // [0] = 0.763184
EC2C  // [1] = -0.619629
2577  // [2] = 1.170776
F3D6  // [3] = -0.380127
1842  // [4] = 0.758057
E1AB  // [5] = -0.947876
13F6  // [6] = 0.623779
EB97  // [7] = -0.637817
