// GL Coefficient Magnitudes for Fractional LIF
// alpha = 0.5, lambda = 0.138712
// History length = 256, coefficients = 255
// Format: QU1.15 (16-bit unsigned)
// Contains |g_1| to |g_{256-1}| (g_0 = 1 is implicit)
// Assumes 0 < alpha <= 1, where g_k (k>=1) are non-positive
//
4000  // |g_1| = 0.500000
1000  // |g_2| = 0.125000
0800  // |g_3| = 0.062500
0500  // |g_4| = 0.039062
0380  // |g_5| = 0.027344
02A0  // |g_6| = 0.020508
0210  // |g_7| = 0.016113
01AD  // |g_8| = 0.013092
0166  // |g_9| = 0.010925
0130  // |g_10| = 0.009277
0106  // |g_11| = 0.007996
00E6  // |g_12| = 0.007019
00CB  // |g_13| = 0.006195
00B5  // |g_14| = 0.005524
00A3  // |g_15| = 0.004974
0094  // |g_16| = 0.004517
0087  // |g_17| = 0.004120
007C  // |g_18| = 0.003784
0072  // |g_19| = 0.003479
0069  // |g_20| = 0.003204
0062  // |g_21| = 0.002991
005B  // |g_22| = 0.002777
0055  // |g_23| = 0.002594
0050  // |g_24| = 0.002441
004B  // |g_25| = 0.002289
0047  // |g_26| = 0.002167
0043  // |g_27| = 0.002045
003F  // |g_28| = 0.001923
003C  // |g_29| = 0.001831
0039  // |g_30| = 0.001740
0036  // |g_31| = 0.001648
0034  // |g_32| = 0.001587
0031  // |g_33| = 0.001495
002F  // |g_34| = 0.001434
002D  // |g_35| = 0.001373
002B  // |g_36| = 0.001312
0029  // |g_37| = 0.001251
0028  // |g_38| = 0.001221
0026  // |g_39| = 0.001160
0025  // |g_40| = 0.001129
0024  // |g_41| = 0.001099
0022  // |g_42| = 0.001038
0021  // |g_43| = 0.001007
0020  // |g_44| = 0.000977
001F  // |g_45| = 0.000946
001E  // |g_46| = 0.000916
001D  // |g_47| = 0.000885
001C  // |g_48| = 0.000854
001B  // |g_49| = 0.000824
001A  // |g_50| = 0.000793
001A  // |g_51| = 0.000793
0019  // |g_52| = 0.000763
0018  // |g_53| = 0.000732
0017  // |g_54| = 0.000702
0017  // |g_55| = 0.000702
0016  // |g_56| = 0.000671
0016  // |g_57| = 0.000671
0015  // |g_58| = 0.000641
0015  // |g_59| = 0.000641
0014  // |g_60| = 0.000610
0014  // |g_61| = 0.000610
0013  // |g_62| = 0.000580
0013  // |g_63| = 0.000580
0012  // |g_64| = 0.000549
0012  // |g_65| = 0.000549
0011  // |g_66| = 0.000519
0011  // |g_67| = 0.000519
0011  // |g_68| = 0.000519
0010  // |g_69| = 0.000488
0010  // |g_70| = 0.000488
0010  // |g_71| = 0.000488
000F  // |g_72| = 0.000458
000F  // |g_73| = 0.000458
000F  // |g_74| = 0.000458
000E  // |g_75| = 0.000427
000E  // |g_76| = 0.000427
000E  // |g_77| = 0.000427
000D  // |g_78| = 0.000397
000D  // |g_79| = 0.000397
000D  // |g_80| = 0.000397
000D  // |g_81| = 0.000397
000D  // |g_82| = 0.000397
000C  // |g_83| = 0.000366
000C  // |g_84| = 0.000366
000C  // |g_85| = 0.000366
000C  // |g_86| = 0.000366
000B  // |g_87| = 0.000336
000B  // |g_88| = 0.000336
000B  // |g_89| = 0.000336
000B  // |g_90| = 0.000336
000B  // |g_91| = 0.000336
000B  // |g_92| = 0.000336
000A  // |g_93| = 0.000305
000A  // |g_94| = 0.000305
000A  // |g_95| = 0.000305
000A  // |g_96| = 0.000305
000A  // |g_97| = 0.000305
000A  // |g_98| = 0.000305
0009  // |g_99| = 0.000275
0009  // |g_100| = 0.000275
0009  // |g_101| = 0.000275
0009  // |g_102| = 0.000275
0009  // |g_103| = 0.000275
0009  // |g_104| = 0.000275
0009  // |g_105| = 0.000275
0009  // |g_106| = 0.000275
0008  // |g_107| = 0.000244
0008  // |g_108| = 0.000244
0008  // |g_109| = 0.000244
0008  // |g_110| = 0.000244
0008  // |g_111| = 0.000244
0008  // |g_112| = 0.000244
0008  // |g_113| = 0.000244
0008  // |g_114| = 0.000244
0008  // |g_115| = 0.000244
0007  // |g_116| = 0.000214
0007  // |g_117| = 0.000214
0007  // |g_118| = 0.000214
0007  // |g_119| = 0.000214
0007  // |g_120| = 0.000214
0007  // |g_121| = 0.000214
0007  // |g_122| = 0.000214
0007  // |g_123| = 0.000214
0007  // |g_124| = 0.000214
0007  // |g_125| = 0.000214
0007  // |g_126| = 0.000214
0006  // |g_127| = 0.000183
0006  // |g_128| = 0.000183
0006  // |g_129| = 0.000183
0006  // |g_130| = 0.000183
0006  // |g_131| = 0.000183
0006  // |g_132| = 0.000183
0006  // |g_133| = 0.000183
0006  // |g_134| = 0.000183
0006  // |g_135| = 0.000183
0006  // |g_136| = 0.000183
0006  // |g_137| = 0.000183
0006  // |g_138| = 0.000183
0006  // |g_139| = 0.000183
0006  // |g_140| = 0.000183
0006  // |g_141| = 0.000183
0005  // |g_142| = 0.000153
0005  // |g_143| = 0.000153
0005  // |g_144| = 0.000153
0005  // |g_145| = 0.000153
0005  // |g_146| = 0.000153
0005  // |g_147| = 0.000153
0005  // |g_148| = 0.000153
0005  // |g_149| = 0.000153
0005  // |g_150| = 0.000153
0005  // |g_151| = 0.000153
0005  // |g_152| = 0.000153
0005  // |g_153| = 0.000153
0005  // |g_154| = 0.000153
0005  // |g_155| = 0.000153
0005  // |g_156| = 0.000153
0005  // |g_157| = 0.000153
0005  // |g_158| = 0.000153
0005  // |g_159| = 0.000153
0005  // |g_160| = 0.000153
0005  // |g_161| = 0.000153
0004  // |g_162| = 0.000122
0004  // |g_163| = 0.000122
0004  // |g_164| = 0.000122
0004  // |g_165| = 0.000122
0004  // |g_166| = 0.000122
0004  // |g_167| = 0.000122
0004  // |g_168| = 0.000122
0004  // |g_169| = 0.000122
0004  // |g_170| = 0.000122
0004  // |g_171| = 0.000122
0004  // |g_172| = 0.000122
0004  // |g_173| = 0.000122
0004  // |g_174| = 0.000122
0004  // |g_175| = 0.000122
0004  // |g_176| = 0.000122
0004  // |g_177| = 0.000122
0004  // |g_178| = 0.000122
0004  // |g_179| = 0.000122
0004  // |g_180| = 0.000122
0004  // |g_181| = 0.000122
0004  // |g_182| = 0.000122
0004  // |g_183| = 0.000122
0004  // |g_184| = 0.000122
0004  // |g_185| = 0.000122
0004  // |g_186| = 0.000122
0004  // |g_187| = 0.000122
0004  // |g_188| = 0.000122
0004  // |g_189| = 0.000122
0004  // |g_190| = 0.000122
0004  // |g_191| = 0.000122
0003  // |g_192| = 0.000092
0003  // |g_193| = 0.000092
0003  // |g_194| = 0.000092
0003  // |g_195| = 0.000092
0003  // |g_196| = 0.000092
0003  // |g_197| = 0.000092
0003  // |g_198| = 0.000092
0003  // |g_199| = 0.000092
0003  // |g_200| = 0.000092
0003  // |g_201| = 0.000092
0003  // |g_202| = 0.000092
0003  // |g_203| = 0.000092
0003  // |g_204| = 0.000092
0003  // |g_205| = 0.000092
0003  // |g_206| = 0.000092
0003  // |g_207| = 0.000092
0003  // |g_208| = 0.000092
0003  // |g_209| = 0.000092
0003  // |g_210| = 0.000092
0003  // |g_211| = 0.000092
0003  // |g_212| = 0.000092
0003  // |g_213| = 0.000092
0003  // |g_214| = 0.000092
0003  // |g_215| = 0.000092
0003  // |g_216| = 0.000092
0003  // |g_217| = 0.000092
0003  // |g_218| = 0.000092
0003  // |g_219| = 0.000092
0003  // |g_220| = 0.000092
0003  // |g_221| = 0.000092
0003  // |g_222| = 0.000092
0003  // |g_223| = 0.000092
0003  // |g_224| = 0.000092
0003  // |g_225| = 0.000092
0003  // |g_226| = 0.000092
0003  // |g_227| = 0.000092
0003  // |g_228| = 0.000092
0003  // |g_229| = 0.000092
0003  // |g_230| = 0.000092
0003  // |g_231| = 0.000092
0003  // |g_232| = 0.000092
0003  // |g_233| = 0.000092
0003  // |g_234| = 0.000092
0003  // |g_235| = 0.000092
0003  // |g_236| = 0.000092
0003  // |g_237| = 0.000092
0003  // |g_238| = 0.000092
0003  // |g_239| = 0.000092
0002  // |g_240| = 0.000061
0002  // |g_241| = 0.000061
0002  // |g_242| = 0.000061
0002  // |g_243| = 0.000061
0002  // |g_244| = 0.000061
0002  // |g_245| = 0.000061
0002  // |g_246| = 0.000061
0002  // |g_247| = 0.000061
0002  // |g_248| = 0.000061
0002  // |g_249| = 0.000061
0002  // |g_250| = 0.000061
0002  // |g_251| = 0.000061
0002  // |g_252| = 0.000061
0002  // |g_253| = 0.000061
0002  // |g_254| = 0.000061
0002  // |g_255| = 0.000061
