// Parameter: fc2.weight
// Shape: [16, 32]
// Format: QS2_13 (16-bit signed, 2 integer bits, 13 fractional bits)
// Range: [-4.000000, 3.999878], Resolution: 7.999878
// Total values: 512
//
FF5D  // [0] = -0.019897
FDDD  // [1] = -0.066772
1F55  // [2] = 0.979126
0BBB  // [3] = 0.366577
11F3  // [4] = 0.560913
0AA0  // [5] = 0.332031
180B  // [6] = 0.751343
F35B  // [7] = -0.395142
121E  // [8] = 0.566162
FBE0  // [9] = -0.128906
F295  // [10] = -0.419312
06AE  // [11] = 0.208740
E2CA  // [12] = -0.912842
0465  // [13] = 0.137329
FBBF  // [14] = -0.132935
1548  // [15] = 0.665039
1269  // [16] = 0.575317
1657  // [17] = 0.698120
EC31  // [18] = -0.619019
0CE7  // [19] = 0.403198
1E2D  // [20] = 0.942993
02EF  // [21] = 0.091675
0CF3  // [22] = 0.404663
12D8  // [23] = 0.588867
F732  // [24] = -0.275146
1008  // [25] = 0.500977
03A0  // [26] = 0.113281
FB3E  // [27] = -0.148682
18CB  // [28] = 0.774780
12B3  // [29] = 0.584351
0C7B  // [30] = 0.390015
F582  // [31] = -0.327881
02E7  // [32] = 0.090698
038D  // [33] = 0.110962
E58F  // [34] = -0.826294
F7BB  // [35] = -0.258423
F316  // [36] = -0.403564
FBD2  // [37] = -0.130615
EC5C  // [38] = -0.613770
FA72  // [39] = -0.173584
ECB7  // [40] = -0.602661
F5D7  // [41] = -0.317505
1659  // [42] = 0.698364
F780  // [43] = -0.265625
23D4  // [44] = 1.119629
F8E0  // [45] = -0.222656
FECE  // [46] = -0.037354
EA43  // [47] = -0.679321
EFFD  // [48] = -0.500366
EC02  // [49] = -0.624756
1F14  // [50] = 0.971191
FAC6  // [51] = -0.163330
E9CE  // [52] = -0.693604
F78F  // [53] = -0.263794
F9D7  // [54] = -0.192505
EF66  // [55] = -0.518799
03DA  // [56] = 0.120361
EDC0  // [57] = -0.570312
0025  // [58] = 0.004517
018C  // [59] = 0.048340
EA0D  // [60] = -0.685913
EE33  // [61] = -0.556274
F4D6  // [62] = -0.348877
FF88  // [63] = -0.014648
103E  // [64] = 0.507568
01FF  // [65] = 0.062378
EDF8  // [66] = -0.563477
F863  // [67] = -0.237915
EF16  // [68] = -0.528564
F9F5  // [69] = -0.188843
F1EE  // [70] = -0.439697
0A36  // [71] = 0.319092
E81C  // [72] = -0.746582
ECB9  // [73] = -0.602417
1692  // [74] = 0.705322
F854  // [75] = -0.239746
1D4C  // [76] = 0.915527
FBCF  // [77] = -0.130981
FBC9  // [78] = -0.131714
E802  // [79] = -0.749756
F12B  // [80] = -0.463501
F26A  // [81] = -0.424561
24AE  // [82] = 1.146240
FF68  // [83] = -0.018555
E666  // [84] = -0.800049
F07C  // [85] = -0.484863
F931  // [86] = -0.212769
F756  // [87] = -0.270752
F753  // [88] = -0.271118
F906  // [89] = -0.218018
FCA8  // [90] = -0.104492
FDE5  // [91] = -0.065796
E3EB  // [92] = -0.877563
F584  // [93] = -0.327637
F54A  // [94] = -0.334717
FD4E  // [95] = -0.084229
012D  // [96] = 0.036743
0128  // [97] = 0.036133
E491  // [98] = -0.857300
F650  // [99] = -0.302734
F148  // [100] = -0.459961
F7E1  // [101] = -0.253784
EDFE  // [102] = -0.562744
043D  // [103] = 0.132446
F4E4  // [104] = -0.347168
FCE5  // [105] = -0.097046
1121  // [106] = 0.535278
F483  // [107] = -0.359009
207A  // [108] = 1.014893
F8F8  // [109] = -0.219727
FC37  // [110] = -0.118286
F0D4  // [111] = -0.474121
EFBB  // [112] = -0.508423
EB2A  // [113] = -0.651123
1D6D  // [114] = 0.919556
FD94  // [115] = -0.075684
EC10  // [116] = -0.623047
F770  // [117] = -0.267578
F448  // [118] = -0.366211
EE5E  // [119] = -0.551025
0C20  // [120] = 0.378906
F2AF  // [121] = -0.416138
0355  // [122] = 0.104126
FEF1  // [123] = -0.033081
EF13  // [124] = -0.528931
EFC3  // [125] = -0.507446
F68E  // [126] = -0.295166
FAA9  // [127] = -0.166870
023A  // [128] = 0.069580
00B7  // [129] = 0.022339
199E  // [130] = 0.800537
0D5F  // [131] = 0.417847
09AD  // [132] = 0.302368
0B3D  // [133] = 0.351196
0F3C  // [134] = 0.476074
05C4  // [135] = 0.180176
0A71  // [136] = 0.326294
FFBF  // [137] = -0.007935
F333  // [138] = -0.400024
0977  // [139] = 0.295776
E446  // [140] = -0.866455
0284  // [141] = 0.078613
FF6D  // [142] = -0.017944
08F3  // [143] = 0.279663
0FD6  // [144] = 0.494873
186A  // [145] = 0.762939
ECF4  // [146] = -0.595215
FFF7  // [147] = -0.001099
11B9  // [148] = 0.553833
0B62  // [149] = 0.355713
0ADA  // [150] = 0.339111
12E2  // [151] = 0.590088
F5B5  // [152] = -0.321655
14EA  // [153] = 0.653564
FDFB  // [154] = -0.063110
00D0  // [155] = 0.025391
0CE2  // [156] = 0.402588
127C  // [157] = 0.577637
055B  // [158] = 0.167358
015D  // [159] = 0.042603
F3DD  // [160] = -0.379272
022A  // [161] = 0.067627
108F  // [162] = 0.517456
07E1  // [163] = 0.246216
0924  // [164] = 0.285645
00CB  // [165] = 0.024780
0A31  // [166] = 0.318481
01FF  // [167] = 0.062378
092A  // [168] = 0.286377
0CF2  // [169] = 0.404541
E786  // [170] = -0.764893
09BD  // [171] = 0.304321
E24D  // [172] = -0.928101
FF6B  // [173] = -0.018188
FF1F  // [174] = -0.027466
0DB4  // [175] = 0.428223
0C0F  // [176] = 0.376831
1084  // [177] = 0.516113
DC29  // [178] = -1.119995
0302  // [179] = 0.093994
0B09  // [180] = 0.344849
02FA  // [181] = 0.093018
060E  // [182] = 0.189209
10A4  // [183] = 0.520020
021E  // [184] = 0.066162
0502  // [185] = 0.156494
0660  // [186] = 0.199219
0333  // [187] = 0.099976
0B10  // [188] = 0.345703
09FA  // [189] = 0.311768
0609  // [190] = 0.188599
FC75  // [191] = -0.110718
EB28  // [192] = -0.651367
0156  // [193] = 0.041748
102B  // [194] = 0.505249
0958  // [195] = 0.291992
0C46  // [196] = 0.383545
013A  // [197] = 0.038330
04C4  // [198] = 0.148926
FB86  // [199] = -0.139893
1AC5  // [200] = 0.836548
17DC  // [201] = 0.745605
E46B  // [202] = -0.861938
0335  // [203] = 0.100220
ED1D  // [204] = -0.590210
01B0  // [205] = 0.052734
0344  // [206] = 0.102051
1248  // [207] = 0.571289
0ADE  // [208] = 0.339600
0D68  // [209] = 0.418945
E2EE  // [210] = -0.908447
044D  // [211] = 0.134399
1420  // [212] = 0.628906
09E8  // [213] = 0.309570
02F4  // [214] = 0.092285
094D  // [215] = 0.290649
0702  // [216] = 0.218994
FF52  // [217] = -0.021240
01F7  // [218] = 0.061401
FD2F  // [219] = -0.088013
123B  // [220] = 0.569702
05D5  // [221] = 0.182251
05D0  // [222] = 0.181641
07E8  // [223] = 0.247070
0C92  // [224] = 0.392822
FEAA  // [225] = -0.041748
E74F  // [226] = -0.771606
EF16  // [227] = -0.528564
EAEA  // [228] = -0.658936
F848  // [229] = -0.241211
E9E8  // [230] = -0.690430
0C6C  // [231] = 0.388184
E3A8  // [232] = -0.885742
F3DB  // [233] = -0.379517
1446  // [234] = 0.633545
F965  // [235] = -0.206421
1F03  // [236] = 0.969116
FFE3  // [237] = -0.003540
03A7  // [238] = 0.114136
EA26  // [239] = -0.682861
EB8E  // [240] = -0.638916
E630  // [241] = -0.806641
213B  // [242] = 1.038452
F4B7  // [243] = -0.352661
E004  // [244] = -0.999512
F565  // [245] = -0.331421
F35E  // [246] = -0.394775
ED18  // [247] = -0.590820
055F  // [248] = 0.167847
EF93  // [249] = -0.513306
00B8  // [250] = 0.022461
FFF6  // [251] = -0.001221
E2A7  // [252] = -0.917114
F2AC  // [253] = -0.416504
F8E1  // [254] = -0.222534
06BA  // [255] = 0.210205
07C8  // [256] = 0.243164
0357  // [257] = 0.104370
E959  // [258] = -0.707886
F730  // [259] = -0.275391
F1CA  // [260] = -0.444092
F707  // [261] = -0.280396
F220  // [262] = -0.433594
05D6  // [263] = 0.182373
EAB6  // [264] = -0.665283
FCD8  // [265] = -0.098633
163D  // [266] = 0.694946
F6C2  // [267] = -0.288818
1CEC  // [268] = 0.903809
FE2F  // [269] = -0.056763
015F  // [270] = 0.042847
EBCA  // [271] = -0.631592
EF72  // [272] = -0.517334
E785  // [273] = -0.765015
20A6  // [274] = 1.020264
FD03  // [275] = -0.093384
E715  // [276] = -0.778687
F8DB  // [277] = -0.223267
F82F  // [278] = -0.244263
EF76  // [279] = -0.516846
04D2  // [280] = 0.150635
F155  // [281] = -0.458374
FE5B  // [282] = -0.051392
0506  // [283] = 0.156982
E7CF  // [284] = -0.755981
EBE4  // [285] = -0.628418
F824  // [286] = -0.245605
0175  // [287] = 0.045532
F02B  // [288] = -0.494751
007B  // [289] = 0.015015
E295  // [290] = -0.919312
F253  // [291] = -0.427368
EE74  // [292] = -0.548340
F6E0  // [293] = -0.285156
EB04  // [294] = -0.655762
03DB  // [295] = 0.120483
FB18  // [296] = -0.153320
13E0  // [297] = 0.621094
FD27  // [298] = -0.088989
F77D  // [299] = -0.265991
1AED  // [300] = 0.841431
FCF1  // [301] = -0.095581
FFDE  // [302] = -0.004150
F27E  // [303] = -0.422119
F445  // [304] = -0.366577
E3F5  // [305] = -0.876343
09F7  // [306] = 0.311401
ED44  // [307] = -0.585449
E6D2  // [308] = -0.786865
FA62  // [309] = -0.175537
F6E3  // [310] = -0.284790
EA83  // [311] = -0.671509
0A2E  // [312] = 0.318115
E92F  // [313] = -0.713013
0269  // [314] = 0.075317
00D3  // [315] = 0.025757
EEE9  // [316] = -0.534058
EB3B  // [317] = -0.649048
F4F2  // [318] = -0.345459
0FB9  // [319] = 0.491333
FEBC  // [320] = -0.039551
0272  // [321] = 0.076416
1DBF  // [322] = 0.929565
0D78  // [323] = 0.420898
1070  // [324] = 0.513672
0B66  // [325] = 0.356201
17C3  // [326] = 0.742554
F471  // [327] = -0.361206
12CA  // [328] = 0.587158
FD60  // [329] = -0.082031
F633  // [330] = -0.306274
014C  // [331] = 0.040527
E11C  // [332] = -0.965332
FEDA  // [333] = -0.035889
0028  // [334] = 0.004883
18B4  // [335] = 0.771973
0BFF  // [336] = 0.374878
1C5E  // [337] = 0.886475
F065  // [338] = -0.487671
05AE  // [339] = 0.177490
17C3  // [340] = 0.742554
0574  // [341] = 0.170410
0F0E  // [342] = 0.470459
167E  // [343] = 0.702881
F39C  // [344] = -0.387207
103A  // [345] = 0.507080
02CE  // [346] = 0.087646
FC91  // [347] = -0.107300
1372  // [348] = 0.607666
0D91  // [349] = 0.423950
0B01  // [350] = 0.343872
FB6F  // [351] = -0.142700
FF15  // [352] = -0.028687
FE1E  // [353] = -0.058838
E257  // [354] = -0.926880
F160  // [355] = -0.457031
EAD4  // [356] = -0.661621
FB82  // [357] = -0.140381
E9A0  // [358] = -0.699219
1027  // [359] = 0.504761
EC6C  // [360] = -0.611816
FF5D  // [361] = -0.019897
08AA  // [362] = 0.270752
F521  // [363] = -0.339722
2418  // [364] = 1.127930
FB1B  // [365] = -0.152954
FEF5  // [366] = -0.032593
E6AB  // [367] = -0.791626
EC7D  // [368] = -0.609741
E8DC  // [369] = -0.723145
17DA  // [370] = 0.745361
EAB5  // [371] = -0.665405
DEED  // [372] = -1.033569
FC68  // [373] = -0.112305
EFF7  // [374] = -0.501099
E5DB  // [375] = -0.817017
0C1B  // [376] = 0.378296
EC7B  // [377] = -0.609985
FF17  // [378] = -0.028442
0486  // [379] = 0.141357
E951  // [380] = -0.708862
ED32  // [381] = -0.587646
F2EE  // [382] = -0.408447
111D  // [383] = 0.534790
0785  // [384] = 0.234985
FD5B  // [385] = -0.082642
189D  // [386] = 0.769165
0B5C  // [387] = 0.354980
0AB9  // [388] = 0.335083
0996  // [389] = 0.299561
0F85  // [390] = 0.484985
0B9C  // [391] = 0.362793
046E  // [392] = 0.138428
F1CE  // [393] = -0.443604
F6FF  // [394] = -0.281372
06F5  // [395] = 0.217407
E6FD  // [396] = -0.781616
00E8  // [397] = 0.028320
FBDF  // [398] = -0.129028
0CBB  // [399] = 0.397827
10CC  // [400] = 0.524902
175C  // [401] = 0.729980
F6FB  // [402] = -0.281860
0774  // [403] = 0.232910
1436  // [404] = 0.631592
08C3  // [405] = 0.273804
0906  // [406] = 0.281982
159C  // [407] = 0.675293
EEE2  // [408] = -0.534912
15D3  // [409] = 0.682007
0212  // [410] = 0.064697
0071  // [411] = 0.013794
0B28  // [412] = 0.348633
0ED7  // [413] = 0.463745
0699  // [414] = 0.206177
02D8  // [415] = 0.088867
010E  // [416] = 0.032959
0404  // [417] = 0.125488
E8E1  // [418] = -0.722534
EEE8  // [419] = -0.534180
EF86  // [420] = -0.514893
F646  // [421] = -0.303955
E78F  // [422] = -0.763794
0B08  // [423] = 0.344727
EE22  // [424] = -0.558350
005A  // [425] = 0.010986
152A  // [426] = 0.661377
F4DB  // [427] = -0.348267
211D  // [428] = 1.034790
F93D  // [429] = -0.211304
03E4  // [430] = 0.121582
EABF  // [431] = -0.664185
EC5D  // [432] = -0.613647
EA47  // [433] = -0.678833
192B  // [434] = 0.786499
F6A8  // [435] = -0.291992
E5DB  // [436] = -0.817017
F90B  // [437] = -0.217407
F4CB  // [438] = -0.350220
EA30  // [439] = -0.681641
0844  // [440] = 0.258301
F174  // [441] = -0.454590
FF70  // [442] = -0.017578
0455  // [443] = 0.135376
EC4A  // [444] = -0.615967
EE14  // [445] = -0.560059
F5BA  // [446] = -0.321045
FF7E  // [447] = -0.015869
115D  // [448] = 0.542603
048F  // [449] = 0.142456
1705  // [450] = 0.719360
08EF  // [451] = 0.279175
0833  // [452] = 0.256226
0774  // [453] = 0.232910
1084  // [454] = 0.516113
06E5  // [455] = 0.215454
FDFF  // [456] = -0.062622
EEFE  // [457] = -0.531494
011E  // [458] = 0.034912
0912  // [459] = 0.283447
E862  // [460] = -0.738037
04B8  // [461] = 0.147461
FEE9  // [462] = -0.034058
08D2  // [463] = 0.275635
0954  // [464] = 0.291504
140D  // [465] = 0.626587
FA3E  // [466] = -0.179932
0317  // [467] = 0.096558
10B8  // [468] = 0.522461
05EE  // [469] = 0.185303
0D23  // [470] = 0.410522
11C4  // [471] = 0.555176
E9F7  // [472] = -0.688599
131E  // [473] = 0.597412
FE61  // [474] = -0.050659
FE80  // [475] = -0.046875
0D35  // [476] = 0.412720
0C1B  // [477] = 0.378296
09A0  // [478] = 0.300781
FDC6  // [479] = -0.069580
F3ED  // [480] = -0.377319
FADC  // [481] = -0.160645
E516  // [482] = -0.841064
F27B  // [483] = -0.422485
EB52  // [484] = -0.646240
F4E5  // [485] = -0.347046
E8D3  // [486] = -0.724243
083C  // [487] = 0.257324
FAE8  // [488] = -0.159180
062D  // [489] = 0.192993
069B  // [490] = 0.206421
F36C  // [491] = -0.393066
1BA5  // [492] = 0.863892
F526  // [493] = -0.339111
FDC8  // [494] = -0.069336
F248  // [495] = -0.428711
F57A  // [496] = -0.328857
E440  // [497] = -0.867188
0F9E  // [498] = 0.488037
F60D  // [499] = -0.310913
EB28  // [500] = -0.651367
FAB4  // [501] = -0.165527
EF40  // [502] = -0.523438
EDAE  // [503] = -0.572510
0B08  // [504] = 0.344727
EF3F  // [505] = -0.523560
FD3D  // [506] = -0.086304
08A5  // [507] = 0.270142
EABF  // [508] = -0.664185
F18B  // [509] = -0.451782
F4D2  // [510] = -0.349365
FDD9  // [511] = -0.067261
