// Parameter: fc2.bias
// Shape: [16]
// Format: QS2_13 (16-bit signed, 2 integer bits, 13 fractional bits)
// Range: [-4.000000, 3.999878], Resolution: 7.999878
// Total values: 16
//
1D99  // [0] = 0.924927
F298  // [1] = -0.418945
EE0E  // [2] = -0.560791
EBAC  // [3] = -0.635254
0AD6  // [4] = 0.338623
045C  // [5] = 0.136230
081B  // [6] = 0.253296
E44F  // [7] = -0.865356
E641  // [8] = -0.804565
E1BA  // [9] = -0.946045
1C51  // [10] = 0.884888
E0A0  // [11] = -0.980469
0AF0  // [12] = 0.341797
E50F  // [13] = -0.841919
0F3A  // [14] = 0.475830
EAF7  // [15] = -0.657349
