// Parameter: fc_out.weight
// Shape: [2, 16]
// Format: QS2_13 (16-bit signed, 2 integer bits, 13 fractional bits)
// Range: [-4.000000, 3.999878], Resolution: 7.999878
// Total values: 32
//
0D19  // [0] = 0.409302
EAAA  // [1] = -0.666748
F5DD  // [2] = -0.316772
E1DA  // [3] = -0.942139
0A6E  // [4] = 0.325928
0594  // [5] = 0.174316
03D9  // [6] = 0.120239
EDD4  // [7] = -0.567871
E877  // [8] = -0.735474
DEF0  // [9] = -1.033203
0C8D  // [10] = 0.392212
E632  // [11] = -0.806396
0A1D  // [12] = 0.316040
E6BE  // [13] = -0.789307
0C7D  // [14] = 0.390259
E41B  // [15] = -0.871704
0E10  // [16] = 0.439453
E429  // [17] = -0.869995
E193  // [18] = -0.950806
E1AA  // [19] = -0.947998
078F  // [20] = 0.236206
0A78  // [21] = 0.327148
0A64  // [22] = 0.324707
E63A  // [23] = -0.805420
E0EB  // [24] = -0.971313
F0E7  // [25] = -0.471802
0B74  // [26] = 0.357910
EB34  // [27] = -0.649902
05CA  // [28] = 0.180908
E68A  // [29] = -0.795654
0494  // [30] = 0.143066
EE5A  // [31] = -0.551514
