// GL Coefficient Magnitudes for Fractional LIF
// alpha = 0.5, lambda = 0.111000
// History length = 64, coefficients = 63
// Format: QU1.15 (16-bit unsigned)
// Contains |g_1| to |g_{64-1}| (g_0 = 1 is implicit)
// Assumes 0 < alpha <= 1, where g_k (k>=1) are non-positive
//
4000  // |g_1| = 0.500000
1000  // |g_2| = 0.125000
0800  // |g_3| = 0.062500
0500  // |g_4| = 0.039062
0380  // |g_5| = 0.027344
02A0  // |g_6| = 0.020508
0210  // |g_7| = 0.016113
01AD  // |g_8| = 0.013092
0166  // |g_9| = 0.010925
0130  // |g_10| = 0.009277
0106  // |g_11| = 0.007996
00E6  // |g_12| = 0.007019
00CB  // |g_13| = 0.006195
00B5  // |g_14| = 0.005524
00A3  // |g_15| = 0.004974
0094  // |g_16| = 0.004517
0087  // |g_17| = 0.004120
007C  // |g_18| = 0.003784
0072  // |g_19| = 0.003479
0069  // |g_20| = 0.003204
0062  // |g_21| = 0.002991
005B  // |g_22| = 0.002777
0055  // |g_23| = 0.002594
0050  // |g_24| = 0.002441
004B  // |g_25| = 0.002289
0047  // |g_26| = 0.002167
0043  // |g_27| = 0.002045
003F  // |g_28| = 0.001923
003C  // |g_29| = 0.001831
0039  // |g_30| = 0.001740
0036  // |g_31| = 0.001648
0034  // |g_32| = 0.001587
0031  // |g_33| = 0.001495
002F  // |g_34| = 0.001434
002D  // |g_35| = 0.001373
002B  // |g_36| = 0.001312
0029  // |g_37| = 0.001251
0028  // |g_38| = 0.001221
0026  // |g_39| = 0.001160
0025  // |g_40| = 0.001129
0024  // |g_41| = 0.001099
0022  // |g_42| = 0.001038
0021  // |g_43| = 0.001007
0020  // |g_44| = 0.000977
001F  // |g_45| = 0.000946
001E  // |g_46| = 0.000916
001D  // |g_47| = 0.000885
001C  // |g_48| = 0.000854
001B  // |g_49| = 0.000824
001A  // |g_50| = 0.000793
001A  // |g_51| = 0.000793
0019  // |g_52| = 0.000763
0018  // |g_53| = 0.000732
0017  // |g_54| = 0.000702
0017  // |g_55| = 0.000702
0016  // |g_56| = 0.000671
0016  // |g_57| = 0.000671
0015  // |g_58| = 0.000641
0015  // |g_59| = 0.000641
0014  // |g_60| = 0.000610
0014  // |g_61| = 0.000610
0013  // |g_62| = 0.000580
0013  // |g_63| = 0.000580
