// fc1 test weights: 8 outputs x 4 inputs = 32 values
// Simple pattern: small positive values to ensure some spikes
// Format: QS2.13 (8192 = 1.0)
00000400
00000400
00000400
00000400
00000800
00000800
00000800
00000800
00000C00
00000C00
00000C00
00000C00
00001000
00001000
00001000
00001000
FFFFFC00
FFFFFC00
FFFFFC00
FFFFFC00
FFFFF800
FFFFF800
FFFFF800
FFFFF800
FFFFF400
FFFFF400
FFFFF400
FFFFF400
FFFFF000
FFFFF000
FFFFF000
FFFFF000
