// Parameter: fc1.bias
// Shape: [32]
// Format: QS3_12 (16-bit signed, 3 integer bits, 12 fractional bits)
// Range: [-8.000000, 7.999756], Resolution: 15.999756
// Total values: 32
//
30C9  // [0] = 3.049072
3E29  // [1] = 3.885010
2159  // [2] = 2.084229
0083  // [3] = 0.031982
0B0A  // [4] = 0.689941
06B0  // [5] = 0.417969
31CF  // [6] = 3.113037
00ED  // [7] = 0.057861
0232  // [8] = 0.137207
19F8  // [9] = 1.623047
F89F  // [10] = -0.461182
2A34  // [11] = 2.637695
0644  // [12] = 0.391602
0500  // [13] = 0.312500
063B  // [14] = 0.389404
190B  // [15] = 1.565186
21E4  // [16] = 2.118164
22A0  // [17] = 2.164062
FF55  // [18] = -0.041748
FBF9  // [19] = -0.251709
2108  // [20] = 2.064453
FD3A  // [21] = -0.173340
0551  // [22] = 0.332275
2C4F  // [23] = 2.769287
13DF  // [24] = 1.241943
294F  // [25] = 2.581787
027E  // [26] = 0.155762
1900  // [27] = 1.562500
2A06  // [28] = 2.626465
081F  // [29] = 0.507568
03F7  // [30] = 0.247803
2F78  // [31] = 2.966797
