// Parameter: fc2.weight
// Shape: [8, 32]
// Format: QS3_12 (16-bit signed, 3 integer bits, 12 fractional bits)
// Range: [-8.000000, 7.999756], Resolution: 15.999756
// Total values: 256
//
0D0D  // [0] = 0.815674
1DCF  // [1] = 1.863037
040F  // [2] = 0.253662
FCF1  // [3] = -0.191162
F4F0  // [4] = -0.691406
F759  // [5] = -0.540771
0D48  // [6] = 0.830078
0051  // [7] = 0.019775
01EB  // [8] = 0.119873
030D  // [9] = 0.190674
01AD  // [10] = 0.104736
FCEF  // [11] = -0.191650
092A  // [12] = 0.572754
057A  // [13] = 0.342285
FF32  // [14] = -0.050293
FEDD  // [15] = -0.071045
FF54  // [16] = -0.041992
05EB  // [17] = 0.369873
FC20  // [18] = -0.242188
009B  // [19] = 0.037842
02F4  // [20] = 0.184570
01DF  // [21] = 0.116943
FCCD  // [22] = -0.199951
0191  // [23] = 0.097900
023C  // [24] = 0.139648
01B9  // [25] = 0.107666
FBFE  // [26] = -0.250488
005E  // [27] = 0.022949
0293  // [28] = 0.160889
059A  // [29] = 0.350098
EFE1  // [30] = -1.007568
0C2A  // [31] = 0.760254
F78D  // [32] = -0.528076
DEC8  // [33] = -2.076172
FF12  // [34] = -0.058105
FE3E  // [35] = -0.109863
F7B9  // [36] = -0.517334
F9CF  // [37] = -0.386963
F1D8  // [38] = -0.884766
FF16  // [39] = -0.057129
016D  // [40] = 0.089111
FD70  // [41] = -0.160156
FD14  // [42] = -0.182617
FBE6  // [43] = -0.256348
11A5  // [44] = 1.102783
0166  // [45] = 0.087402
FF38  // [46] = -0.048828
FBD6  // [47] = -0.260254
FB19  // [48] = -0.306396
FC00  // [49] = -0.250000
0022  // [50] = 0.008301
FF07  // [51] = -0.060791
FE02  // [52] = -0.124512
0122  // [53] = 0.070801
03DA  // [54] = 0.240723
FBDA  // [55] = -0.259277
00A9  // [56] = 0.041260
FC4E  // [57] = -0.230957
0DEE  // [58] = 0.870605
00BC  // [59] = 0.045898
FE7C  // [60] = -0.094727
FFCD  // [61] = -0.012451
F551  // [62] = -0.667725
F4EC  // [63] = -0.692383
05FD  // [64] = 0.374268
21A4  // [65] = 2.102539
FC01  // [66] = -0.249756
048C  // [67] = 0.284180
0C65  // [68] = 0.774658
08E3  // [69] = 0.555420
0F5E  // [70] = 0.960449
00B2  // [71] = 0.043457
FCAD  // [72] = -0.207764
FF13  // [73] = -0.057861
022E  // [74] = 0.136230
023D  // [75] = 0.139893
E71D  // [76] = -1.555420
FDFB  // [77] = -0.126221
FEDA  // [78] = -0.071777
033D  // [79] = 0.202393
0503  // [80] = 0.313232
03E2  // [81] = 0.242676
044A  // [82] = 0.268066
FF2F  // [83] = -0.051025
02C2  // [84] = 0.172363
0218  // [85] = 0.130859
FCC1  // [86] = -0.202881
0497  // [87] = 0.286865
03C9  // [88] = 0.236572
056F  // [89] = 0.339600
F0C0  // [90] = -0.953125
02C3  // [91] = 0.172607
040E  // [92] = 0.253418
FF61  // [93] = -0.038818
12D7  // [94] = 1.177490
09D9  // [95] = 0.615479
F46B  // [96] = -0.723877
DFDF  // [97] = -2.008057
FCCE  // [98] = -0.199707
045E  // [99] = 0.272949
0E01  // [100] = 0.875244
0A99  // [101] = 0.662354
F434  // [102] = -0.737305
0068  // [103] = 0.025391
FFB8  // [104] = -0.017578
FD32  // [105] = -0.175293
001F  // [106] = 0.007568
0128  // [107] = 0.072266
DEC8  // [108] = -2.076172
0119  // [109] = 0.068604
FB28  // [110] = -0.302734
0098  // [111] = 0.037109
FD7C  // [112] = -0.157227
F956  // [113] = -0.416504
FB56  // [114] = -0.291504
FFE8  // [115] = -0.005859
FDC1  // [116] = -0.140381
FD7E  // [117] = -0.156738
FAF6  // [118] = -0.314941
FE15  // [119] = -0.119873
FDB8  // [120] = -0.142578
FE14  // [121] = -0.120117
F3A2  // [122] = -0.772949
0000  // [123] = 0.000000
FCD7  // [124] = -0.197510
0433  // [125] = 0.262451
1219  // [126] = 1.131104
F7F0  // [127] = -0.503906
05AF  // [128] = 0.355225
21B8  // [129] = 2.107422
0267  // [130] = 0.150146
FEB6  // [131] = -0.080566
08EF  // [132] = 0.558350
0582  // [133] = 0.344238
0FBA  // [134] = 0.982910
FFF3  // [135] = -0.003174
FECD  // [136] = -0.074951
02D8  // [137] = 0.177734
FF5F  // [138] = -0.039307
01A5  // [139] = 0.102783
F0CD  // [140] = -0.949951
FF2E  // [141] = -0.051270
FED5  // [142] = -0.072998
0437  // [143] = 0.263428
0587  // [144] = 0.345459
049B  // [145] = 0.287842
0083  // [146] = 0.031982
FF62  // [147] = -0.038574
0359  // [148] = 0.209229
FFD4  // [149] = -0.010742
FBDA  // [150] = -0.259277
0419  // [151] = 0.256104
01B6  // [152] = 0.106934
0302  // [153] = 0.187988
F5BD  // [154] = -0.641357
01D6  // [155] = 0.114746
0415  // [156] = 0.255127
FD02  // [157] = -0.187012
0944  // [158] = 0.579102
0B8E  // [159] = 0.722168
F655  // [160] = -0.604248
DF6A  // [161] = -2.036621
FD02  // [162] = -0.187012
03D6  // [163] = 0.239746
04E6  // [164] = 0.306152
01DE  // [165] = 0.116699
F201  // [166] = -0.874756
01D8  // [167] = 0.115234
FF02  // [168] = -0.062012
FD8E  // [169] = -0.152832
FFF5  // [170] = -0.002686
0037  // [171] = 0.013428
F44B  // [172] = -0.731689
00E6  // [173] = 0.056152
FF1B  // [174] = -0.055908
FDF4  // [175] = -0.127930
FAFA  // [176] = -0.313965
FB32  // [177] = -0.300293
FF2D  // [178] = -0.051514
FF49  // [179] = -0.044678
FA85  // [180] = -0.342529
FF06  // [181] = -0.061035
FDB0  // [182] = -0.144531
FC36  // [183] = -0.236816
FDB9  // [184] = -0.142334
FB85  // [185] = -0.280029
FEA2  // [186] = -0.085449
FF8A  // [187] = -0.028809
FA51  // [188] = -0.355225
03B1  // [189] = 0.230713
084F  // [190] = 0.519287
F71D  // [191] = -0.555420
F795  // [192] = -0.526123
E1FC  // [193] = -1.875977
0230  // [194] = 0.136719
0061  // [195] = 0.023682
F7BE  // [196] = -0.516113
F9B3  // [197] = -0.393799
F001  // [198] = -0.999756
FF59  // [199] = -0.040771
FFAE  // [200] = -0.020020
FD9A  // [201] = -0.149902
FC86  // [202] = -0.217285
FBA1  // [203] = -0.273193
1392  // [204] = 1.223145
FFBC  // [205] = -0.016602
001E  // [206] = 0.007324
FAED  // [207] = -0.317139
FA78  // [208] = -0.345703
FAAB  // [209] = -0.333252
0228  // [210] = 0.134766
0047  // [211] = 0.017334
FC7D  // [212] = -0.219482
0208  // [213] = 0.126953
02D2  // [214] = 0.176270
F87E  // [215] = -0.469238
017F  // [216] = 0.093506
FA88  // [217] = -0.341797
0F73  // [218] = 0.965576
00C5  // [219] = 0.048096
FD96  // [220] = -0.150879
FF27  // [221] = -0.052979
F4BE  // [222] = -0.703613
F5CB  // [223] = -0.637939
0B0A  // [224] = 0.689941
20CD  // [225] = 2.050049
0509  // [226] = 0.314697
FE61  // [227] = -0.101318
F77C  // [228] = -0.532227
F7B4  // [229] = -0.518555
0A8B  // [230] = 0.658936
FE22  // [231] = -0.116699
004B  // [232] = 0.018311
0159  // [233] = 0.084229
FF9B  // [234] = -0.024658
FD35  // [235] = -0.174561
1A35  // [236] = 1.637939
00DD  // [237] = 0.053955
00FE  // [238] = 0.062012
FD62  // [239] = -0.163574
01D2  // [240] = 0.113770
07C2  // [241] = 0.484863
FF58  // [242] = -0.041016
0298  // [243] = 0.162109
0441  // [244] = 0.265869
01FD  // [245] = 0.124268
0088  // [246] = 0.033203
03A7  // [247] = 0.228271
0157  // [248] = 0.083740
0369  // [249] = 0.213135
091B  // [250] = 0.569092
00FC  // [251] = 0.061523
05A0  // [252] = 0.351562
00F0  // [253] = 0.058594
F005  // [254] = -0.998779
0AE8  // [255] = 0.681641
