// Parameter: fc_out.weight
// Shape: [2, 8]
// Format: QS3_12 (16-bit signed, 3 integer bits, 12 fractional bits)
// Range: [-8.000000, 7.999756], Resolution: 15.999756
// Total values: 16
//
1BAF  // [0] = 1.730225
D7D4  // [1] = -2.510742
2023  // [2] = 2.008545
D70D  // [3] = -2.559326
1FEA  // [4] = 1.994629
D86E  // [5] = -2.473145
D2DA  // [6] = -2.821777
1FC9  // [7] = 1.986572
1B39  // [8] = 1.701416
D8EF  // [9] = -2.441650
1D92  // [10] = 1.848145
D525  // [11] = -2.678467
220C  // [12] = 2.127930
D589  // [13] = -2.654053
D6ED  // [14] = -2.567139
2231  // [15] = 2.136963
