// Parameter: fc1.weight
// Shape: [32, 4]
// Format: QS2_13 (16-bit signed, 2 integer bits, 13 fractional bits)
// Range: [-4.000000, 3.999878], Resolution: 7.999878
// Total values: 128
//
FBB9  // [0] = -0.133667
F4D2  // [1] = -0.349365
EC91  // [2] = -0.607300
F689  // [3] = -0.295776
EADD  // [4] = -0.660522
0724  // [5] = 0.223145
00D0  // [6] = 0.025391
058D  // [7] = 0.173462
0204  // [8] = 0.062988
0276  // [9] = 0.076904
027B  // [10] = 0.077515
F8C1  // [11] = -0.226440
F931  // [12] = -0.212769
F322  // [13] = -0.402100
F507  // [14] = -0.342896
0FDC  // [15] = 0.495605
E141  // [16] = -0.960815
FD1C  // [17] = -0.090332
0BFD  // [18] = 0.374634
007D  // [19] = 0.015259
153C  // [20] = 0.663574
F900  // [21] = -0.218750
F742  // [22] = -0.273193
F99C  // [23] = -0.199707
1EA8  // [24] = 0.958008
1785  // [25] = 0.734985
3070  // [26] = 1.513672
1211  // [27] = 0.564575
D73E  // [28] = -1.273682
FA13  // [29] = -0.185181
F419  // [30] = -0.371948
FC6B  // [31] = -0.111938
FEFD  // [32] = -0.031616
F4EF  // [33] = -0.345825
F9D4  // [34] = -0.192871
05E4  // [35] = 0.184082
0177  // [36] = 0.045776
FCD4  // [37] = -0.099121
023A  // [38] = 0.069580
FF64  // [39] = -0.019043
0157  // [40] = 0.041870
FAF4  // [41] = -0.157715
0395  // [42] = 0.111938
FE7F  // [43] = -0.046997
1AAF  // [44] = 0.833862
04F8  // [45] = 0.155273
0EC2  // [46] = 0.461182
025A  // [47] = 0.073486
038B  // [48] = 0.110718
0A10  // [49] = 0.314453
0698  // [50] = 0.206055
F8E6  // [51] = -0.221924
F918  // [52] = -0.215820
F460  // [53] = -0.363281
F2BC  // [54] = -0.414551
0FB8  // [55] = 0.491211
E364  // [56] = -0.894043
FBBF  // [57] = -0.132935
07EA  // [58] = 0.247314
042A  // [59] = 0.130127
02F8  // [60] = 0.092773
1D1C  // [61] = 0.909668
309B  // [62] = 1.518921
162D  // [63] = 0.692993
03E9  // [64] = 0.122192
1043  // [65] = 0.508179
FC42  // [66] = -0.116943
0A63  // [67] = 0.324585
FEB8  // [68] = -0.040039
0522  // [69] = 0.160400
E778  // [70] = -0.766602
F495  // [71] = -0.356812
0533  // [72] = 0.162476
0CAE  // [73] = 0.396240
25BA  // [74] = 1.178955
09B7  // [75] = 0.303589
FE42  // [76] = -0.054443
FE11  // [77] = -0.060425
F00D  // [78] = -0.498413
EAF2  // [79] = -0.657959
0409  // [80] = 0.126099
0867  // [81] = 0.262573
0916  // [82] = 0.283936
F4D2  // [83] = -0.349365
F851  // [84] = -0.240112
F0A3  // [85] = -0.480103
F4EA  // [86] = -0.346436
108D  // [87] = 0.517212
1372  // [88] = 0.607666
FFFA  // [89] = -0.000732
096B  // [90] = 0.294312
FFEA  // [91] = -0.002686
0BC6  // [92] = 0.367920
FB00  // [93] = -0.156250
F4C2  // [94] = -0.351318
F644  // [95] = -0.304199
E3E4  // [96] = -0.878418
EFDE  // [97] = -0.504150
0BFE  // [98] = 0.374756
FF42  // [99] = -0.023193
2BCA  // [100] = 1.368408
22AB  // [101] = 1.083374
3B9B  // [102] = 1.862671
1A5B  // [103] = 0.823608
15CE  // [104] = 0.681396
13AE  // [105] = 0.614990
1B62  // [106] = 0.855713
0EF7  // [107] = 0.467651
0FB7  // [108] = 0.491089
1B35  // [109] = 0.850220
1C86  // [110] = 0.891357
1347  // [111] = 0.602417
140A  // [112] = 0.626221
00A6  // [113] = 0.020264
0751  // [114] = 0.228638
0209  // [115] = 0.063599
02BF  // [116] = 0.085815
EB52  // [117] = -0.646240
E52F  // [118] = -0.838013
EEBF  // [119] = -0.539185
05EC  // [120] = 0.185059
0B8A  // [121] = 0.360596
222F  // [122] = 1.068237
0955  // [123] = 0.291626
F3B6  // [124] = -0.384033
EE35  // [125] = -0.556030
DFA8  // [126] = -1.010742
F08D  // [127] = -0.482788
