// Parameter: fc_out.weight
// Shape: [2, 16]
// Format: QS2_13 (16-bit signed, 2 integer bits, 13 fractional bits)
// Range: [-4.000000, 3.999878], Resolution: 7.999878
// Total values: 32
//
EBAE  // [0] = -0.635010
E38E  // [1] = -0.888916
0DF9  // [2] = 0.436646
1005  // [3] = 0.500610
1AFE  // [4] = 0.843506
09B0  // [5] = 0.302734
13A9  // [6] = 0.614380
E2B7  // [7] = -0.915161
DE4B  // [8] = -1.053345
E95F  // [9] = -0.707153
E7F7  // [10] = -0.751099
E8E2  // [11] = -0.722412
E0E4  // [12] = -0.972168
E4F5  // [13] = -0.845093
E641  // [14] = -0.804565
E269  // [15] = -0.924683
E0B0  // [16] = -0.978516
E919  // [17] = -0.715698
1363  // [18] = 0.605835
1279  // [19] = 0.577271
1534  // [20] = 0.662598
1927  // [21] = 0.786011
1750  // [22] = 0.728516
E90F  // [23] = -0.716919
ECD8  // [24] = -0.598633
0381  // [25] = 0.109497
E47A  // [26] = -0.860107
E350  // [27] = -0.896484
DEA7  // [28] = -1.042114
E2D0  // [29] = -0.912109
E85B  // [30] = -0.738892
EC7D  // [31] = -0.609741
