// Parameter: fc1.weight
// Shape: [32, 4]
// Format: QS2_13 (16-bit signed, 2 integer bits, 13 fractional bits)
// Range: [-4.000000, 3.999878], Resolution: 7.999878
// Total values: 128
//
1883  // [0] = 0.765991
F91A  // [1] = -0.215576
ED51  // [2] = -0.583862
F4FC  // [3] = -0.344238
0C66  // [4] = 0.387451
099B  // [5] = 0.300171
E602  // [6] = -0.812256
FA4E  // [7] = -0.177979
0101  // [8] = 0.031372
0484  // [9] = 0.141113
F0E6  // [10] = -0.471924
0273  // [11] = 0.076538
0291  // [12] = 0.080200
031D  // [13] = 0.097290
132C  // [14] = 0.599121
0376  // [15] = 0.108154
EFFE  // [16] = -0.500244
ECCF  // [17] = -0.599731
D7AE  // [18] = -1.260010
F141  // [19] = -0.460815
FF09  // [20] = -0.030151
FF6E  // [21] = -0.017822
0121  // [22] = 0.035278
024F  // [23] = 0.072144
17B7  // [24] = 0.741089
027A  // [25] = 0.077393
E7EF  // [26] = -0.752075
FE2F  // [27] = -0.056763
EAFC  // [28] = -0.656738
FE1E  // [29] = -0.058838
0157  // [30] = 0.041870
002F  // [31] = 0.005737
F1BB  // [32] = -0.445923
FD7A  // [33] = -0.078857
0F14  // [34] = 0.471191
0030  // [35] = 0.005859
0876  // [36] = 0.264404
03A9  // [37] = 0.114380
EF35  // [38] = -0.524780
FAF4  // [39] = -0.157715
0C15  // [40] = 0.377563
FBE9  // [41] = -0.127808
E935  // [42] = -0.712280
FA0C  // [43] = -0.186035
11F9  // [44] = 0.561646
08C8  // [45] = 0.274414
0C46  // [46] = 0.383545
0566  // [47] = 0.168701
01FF  // [48] = 0.062378
FFB9  // [49] = -0.008667
24C2  // [50] = 1.148682
0B21  // [51] = 0.347778
FBAF  // [52] = -0.134888
0920  // [53] = 0.285156
2D39  // [54] = 1.413208
1060  // [55] = 0.511719
01C1  // [56] = 0.054810
FB10  // [57] = -0.154297
1FFB  // [58] = 0.999390
09E9  // [59] = 0.309692
E595  // [60] = -0.825562
ECC3  // [61] = -0.601196
CFF7  // [62] = -1.501099
F32C  // [63] = -0.400879
028A  // [64] = 0.079346
0547  // [65] = 0.164917
1890  // [66] = 0.767578
04F4  // [67] = 0.154785
E97D  // [68] = -0.703491
EA71  // [69] = -0.673706
092D  // [70] = 0.286743
FA5A  // [71] = -0.176514
FCE7  // [72] = -0.096802
FFE7  // [73] = -0.003052
EDE7  // [74] = -0.565552
FE66  // [75] = -0.050049
01CE  // [76] = 0.056396
132A  // [77] = 0.598877
F9F8  // [78] = -0.188477
EF7C  // [79] = -0.516113
E313  // [80] = -0.903931
E885  // [81] = -0.733765
E3D1  // [82] = -0.880737
F03D  // [83] = -0.492554
0033  // [84] = 0.006226
08F5  // [85] = 0.279907
1C77  // [86] = 0.889526
07E5  // [87] = 0.246704
049E  // [88] = 0.144287
071C  // [89] = 0.222168
13DB  // [90] = 0.620483
05F4  // [91] = 0.186035
03FF  // [92] = 0.124878
056B  // [93] = 0.169312
F8E0  // [94] = -0.222656
02A9  // [95] = 0.083130
F9EF  // [96] = -0.189575
E9F4  // [97] = -0.688965
0625  // [98] = 0.192017
0FC2  // [99] = 0.492432
23B2  // [100] = 1.115479
1380  // [101] = 0.609375
01EA  // [102] = 0.059814
0CEB  // [103] = 0.403687
F18E  // [104] = -0.451416
FD30  // [105] = -0.087891
00D0  // [106] = 0.025391
FF20  // [107] = -0.027344
0B38  // [108] = 0.350586
F979  // [109] = -0.203979
F9B0  // [110] = -0.197266
FA87  // [111] = -0.171021
FCE9  // [112] = -0.096558
F55C  // [113] = -0.332520
F1A0  // [114] = -0.449219
FA9B  // [115] = -0.168579
1023  // [116] = 0.504272
FB6C  // [117] = -0.143066
EA61  // [118] = -0.675659
FB9D  // [119] = -0.137085
1194  // [120] = 0.549316
08FA  // [121] = 0.280518
F86E  // [122] = -0.236572
FFCE  // [123] = -0.006104
CE08  // [124] = -1.561523
E948  // [125] = -0.709961
E58F  // [126] = -0.826294
F075  // [127] = -0.485718
