// Parameter: fc1.bias
// Shape: [32]
// Format: QS2_13 (16-bit signed, 2 integer bits, 13 fractional bits)
// Range: [-4.000000, 3.999878], Resolution: 7.999878
// Total values: 32
//
2618  // [0] = 1.190430
0241  // [1] = 0.070435
FA34  // [2] = -0.181152
FF50  // [3] = -0.021484
30EB  // [4] = 1.528687
38CF  // [5] = 1.775269
2A9C  // [6] = 1.331543
01A2  // [7] = 0.051025
055E  // [8] = 0.167725
3490  // [9] = 1.642578
3978  // [10] = 1.795898
2BEC  // [11] = 1.372559
2A76  // [12] = 1.326904
35B8  // [13] = 1.678711
178B  // [14] = 0.735718
2A2B  // [15] = 1.317749
F522  // [16] = -0.339600
1943  // [17] = 0.789429
021F  // [18] = 0.066284
0D6E  // [19] = 0.419678
02D5  // [20] = 0.088501
1484  // [21] = 0.641113
14AB  // [22] = 0.645874
2D46  // [23] = 1.414795
32C9  // [24] = 1.587036
FD2A  // [25] = -0.088623
2788  // [26] = 1.235352
F5AA  // [27] = -0.322998
230D  // [28] = 1.095337
28C1  // [29] = 1.273560
063E  // [30] = 0.195068
3446  // [31] = 1.633545
