// Parameter: fc1.bias
// Shape: [32]
// Format: QS2_13 (16-bit signed, 2 integer bits, 13 fractional bits)
// Range: [-4.000000, 3.999878], Resolution: 7.999878
// Total values: 32
//
FB6C  // [0] = -0.143066
FA63  // [1] = -0.175415
122A  // [2] = 0.567627
161B  // [3] = 0.690796
1D40  // [4] = 0.914062
1768  // [5] = 0.731445
FDE1  // [6] = -0.066284
21CE  // [7] = 1.056396
1B81  // [8] = 0.859497
0D92  // [9] = 0.424072
F8F9  // [10] = -0.219604
0EE0  // [11] = 0.464844
F8E7  // [12] = -0.221802
F056  // [13] = -0.489502
F39B  // [14] = -0.387329
0B32  // [15] = 0.349854
18CD  // [16] = 0.775024
032A  // [17] = 0.098877
125D  // [18] = 0.573853
0710  // [19] = 0.220703
29CD  // [20] = 1.306274
F8FC  // [21] = -0.219238
1142  // [22] = 0.539307
1A8B  // [23] = 0.829468
156D  // [24] = 0.669556
FFE2  // [25] = -0.003662
1BB4  // [26] = 0.865723
1607  // [27] = 0.688354
217A  // [28] = 1.046143
108E  // [29] = 0.517334
00A7  // [30] = 0.020386
238D  // [31] = 1.110962
