// Parameter: fc1.weight
// Shape: [32, 4]
// Format: QS2_13 (16-bit signed, 2 integer bits, 13 fractional bits)
// Range: [-4.000000, 3.999878], Resolution: 7.999878
// Total values: 128
//
F610  // [0] = -0.310547
F316  // [1] = -0.403564
D7A5  // [2] = -1.261108
E773  // [3] = -0.767212
34D1  // [4] = 1.650513
1F11  // [5] = 0.970825
0D8D  // [6] = 0.423462
13E9  // [7] = 0.622192
1A7A  // [8] = 0.827393
FC21  // [9] = -0.120972
DCB3  // [10] = -1.103149
F2A7  // [11] = -0.417114
1D89  // [12] = 0.922974
1186  // [13] = 0.547607
09B6  // [14] = 0.303467
0DB5  // [15] = 0.428345
F267  // [16] = -0.424927
E78D  // [17] = -0.764038
E36E  // [18] = -0.892822
EF58  // [19] = -0.520508
ED2D  // [20] = -0.588257
D8FF  // [21] = -1.218872
C0C1  // [22] = -1.976440
E649  // [23] = -0.803589
F365  // [24] = -0.393921
F280  // [25] = -0.421875
DC36  // [26] = -1.118408
E64E  // [27] = -0.802979
42CE  // [28] = 2.087646
29BD  // [29] = 1.304321
2B32  // [30] = 1.349854
1C8B  // [31] = 0.891968
18D0  // [32] = 0.775391
27D2  // [33] = 1.244385
4C6D  // [34] = 2.388306
1DB5  // [35] = 0.928345
E28A  // [36] = -0.920654
EC31  // [37] = -0.619019
E530  // [38] = -0.837891
F492  // [39] = -0.357178
F0DD  // [40] = -0.473022
ECD7  // [41] = -0.598755
DA62  // [42] = -1.175537
F460  // [43] = -0.363281
FD8D  // [44] = -0.076538
0475  // [45] = 0.139282
0A0F  // [46] = 0.314331
0384  // [47] = 0.109863
F43D  // [48] = -0.367554
E51E  // [49] = -0.840088
E1FC  // [50] = -0.937988
F1D4  // [51] = -0.442871
E849  // [52] = -0.741089
E931  // [53] = -0.712769
DFA6  // [54] = -1.010986
F1FA  // [55] = -0.438232
D5A6  // [56] = -1.323486
E185  // [57] = -0.952515
E1FE  // [58] = -0.937744
EE34  // [59] = -0.556152
F26E  // [60] = -0.424072
CC14  // [61] = -1.622559
A3FA  // [62] = -2.875732
DA8B  // [63] = -1.170532
0937  // [64] = 0.287964
0518  // [65] = 0.159180
D0B3  // [66] = -1.478149
F8AC  // [67] = -0.229004
C352  // [68] = -1.896240
EBEE  // [69] = -0.627197
0508  // [70] = 0.157227
F54C  // [71] = -0.334473
0DDA  // [72] = 0.432861
F0A5  // [73] = -0.479858
EA28  // [74] = -0.682617
01C4  // [75] = 0.055176
D889  // [76] = -1.233276
DEC3  // [77] = -1.038696
E554  // [78] = -0.833496
EBAE  // [79] = -0.635010
0E38  // [80] = 0.444336
1B19  // [81] = 0.846802
453B  // [82] = 2.163452
165B  // [83] = 0.698608
0C28  // [84] = 0.379883
0075  // [85] = 0.014282
154D  // [86] = 0.665649
00D6  // [87] = 0.026123
1DCA  // [88] = 0.930908
1F1E  // [89] = 0.972412
2EF3  // [90] = 1.467163
196A  // [91] = 0.794189
0230  // [92] = 0.068359
03CA  // [93] = 0.118408
0BDC  // [94] = 0.370605
0309  // [95] = 0.094849
D996  // [96] = -1.200439
F060  // [97] = -0.488281
01E3  // [98] = 0.058960
F7B6  // [99] = -0.259033
084A  // [100] = 0.259033
F51A  // [101] = -0.340576
C79A  // [102] = -1.762451
F21A  // [103] = -0.434326
024C  // [104] = 0.071777
0283  // [105] = 0.078491
FB67  // [106] = -0.143677
020E  // [107] = 0.064209
17FC  // [108] = 0.749512
03C0  // [109] = 0.117188
E12D  // [110] = -0.963257
F95C  // [111] = -0.207520
FF29  // [112] = -0.026245
00AD  // [113] = 0.021118
0492  // [114] = 0.142822
0121  // [115] = 0.035278
0154  // [116] = 0.041504
0268  // [117] = 0.075195
FDAF  // [118] = -0.072388
0209  // [119] = 0.063599
F64D  // [120] = -0.303101
F31C  // [121] = -0.402832
C45D  // [122] = -1.863647
E965  // [123] = -0.706421
FDA1  // [124] = -0.074097
F6E8  // [125] = -0.284180
DC91  // [126] = -1.107300
F793  // [127] = -0.263306
