// Parameter: fc2.weight
// Shape: [4, 32]
// Format: QS2_13 (16-bit signed, 2 integer bits, 13 fractional bits)
// Range: [-4.000000, 3.999878], Resolution: 7.999878
// Total values: 128
//
1250  // [0] = 0.572266
0A38  // [1] = 0.319336
E244  // [2] = -0.929199
D6CE  // [3] = -1.287354
F4D6  // [4] = -0.348877
E94F  // [5] = -0.709106
10F6  // [6] = 0.530029
E32C  // [7] = -0.900879
DD16  // [8] = -1.091064
0034  // [9] = 0.006348
19CF  // [10] = 0.806519
E329  // [11] = -0.901245
0EB8  // [12] = 0.459961
21FE  // [13] = 1.062256
1204  // [14] = 0.562988
1321  // [15] = 0.597778
D886  // [16] = -1.233643
01B4  // [17] = 0.053223
F18C  // [18] = -0.451660
01B9  // [19] = 0.053833
E678  // [20] = -0.797852
31CB  // [21] = 1.556030
DA87  // [22] = -1.171021
E5CC  // [23] = -0.818848
FFEC  // [24] = -0.002441
10F8  // [25] = 0.530273
E271  // [26] = -0.923706
E9B0  // [27] = -0.697266
F555  // [28] = -0.333374
DD48  // [29] = -1.084961
0AD5  // [30] = 0.338501
F192  // [31] = -0.450928
FCC4  // [32] = -0.101074
0018  // [33] = 0.002930
1D96  // [34] = 0.924561
1661  // [35] = 0.699341
08E1  // [36] = 0.277466
115C  // [37] = 0.542480
E90A  // [38] = -0.717529
186B  // [39] = 0.763062
15A9  // [40] = 0.676880
0744  // [41] = 0.227051
E5B1  // [42] = -0.822144
24A7  // [43] = 1.145386
E4DB  // [44] = -0.848267
D702  // [45] = -1.281006
E9C2  // [46] = -0.695068
FB81  // [47] = -0.140503
16CC  // [48] = 0.712402
F62F  // [49] = -0.306763
1015  // [50] = 0.502563
01CE  // [51] = 0.056396
0D4F  // [52] = 0.415894
C643  // [53] = -1.804321
117A  // [54] = 0.546143
1DA9  // [55] = 0.926880
FEF4  // [56] = -0.032715
F470  // [57] = -0.361328
191F  // [58] = 0.785034
0CC0  // [59] = 0.398438
145D  // [60] = 0.636353
20F4  // [61] = 1.029785
FCBA  // [62] = -0.102295
0436  // [63] = 0.131592
F82C  // [64] = -0.244629
F9B0  // [65] = -0.197266
1D92  // [66] = 0.924072
1A43  // [67] = 0.820679
0689  // [68] = 0.204224
1722  // [69] = 0.722900
E86A  // [70] = -0.737061
19D9  // [71] = 0.807739
1BEA  // [72] = 0.872314
0835  // [73] = 0.256470
E601  // [74] = -0.812378
2426  // [75] = 1.129639
E594  // [76] = -0.825684
DBD4  // [77] = -1.130371
E729  // [78] = -0.776245
FCB0  // [79] = -0.103516
18A7  // [80] = 0.770386
FD53  // [81] = -0.083618
12AD  // [82] = 0.583618
0633  // [83] = 0.193726
1102  // [84] = 0.531494
CA74  // [85] = -1.673340
14BC  // [86] = 0.647949
19F5  // [87] = 0.811157
041B  // [88] = 0.128296
F28F  // [89] = -0.420044
1B76  // [90] = 0.858154
1192  // [91] = 0.549072
13B9  // [92] = 0.616333
1F46  // [93] = 0.977295
FBCF  // [94] = -0.130981
0931  // [95] = 0.287231
E98A  // [96] = -0.701904
FA59  // [97] = -0.176636
166D  // [98] = 0.700806
2455  // [99] = 1.135376
0BAA  // [100] = 0.364502
1430  // [101] = 0.630859
F0FA  // [102] = -0.469482
1E0B  // [103] = 0.938843
1F09  // [104] = 0.969849
0250  // [105] = 0.072266
E51E  // [106] = -0.840088
1D1C  // [107] = 0.909668
FCEB  // [108] = -0.096313
E626  // [109] = -0.807861
F63E  // [110] = -0.304932
E5AF  // [111] = -0.822388
2304  // [112] = 1.094238
FD28  // [113] = -0.088867
0EAE  // [114] = 0.458740
0099  // [115] = 0.018677
1498  // [116] = 0.643555
DD0E  // [117] = -1.092041
1BE6  // [118] = 0.871826
1728  // [119] = 0.723633
FEDD  // [120] = -0.035522
F52A  // [121] = -0.338623
15A6  // [122] = 0.676514
1230  // [123] = 0.568359
01FB  // [124] = 0.061890
1DC7  // [125] = 0.930542
F4B5  // [126] = -0.352905
1233  // [127] = 0.568726
