// Parameter: fc2.weight
// Shape: [4, 32]
// Format: QS2_13 (16-bit signed, 2 integer bits, 13 fractional bits)
// Range: [-4.000000, 3.999878], Resolution: 7.999878
// Total values: 128
//
0CCC  // [0] = 0.399902
C20A  // [1] = -1.936279
02B9  // [2] = 0.085083
DDA9  // [3] = -1.073120
1649  // [4] = 0.696411
1918  // [5] = 0.784180
08D2  // [6] = 0.275635
DFD2  // [7] = -1.005615
DC55  // [8] = -1.114624
1B19  // [9] = 0.846802
2147  // [10] = 1.039917
18A5  // [11] = 0.770142
0EF8  // [12] = 0.467773
1FD9  // [13] = 0.995239
F1E6  // [14] = -0.440674
E1EA  // [15] = -0.940186
E4D2  // [16] = -0.849365
F79A  // [17] = -0.262451
00B1  // [18] = 0.021606
F108  // [19] = -0.467773
B756  // [20] = -2.270752
1386  // [21] = 0.610107
02FA  // [22] = 0.093018
19B2  // [23] = 0.802979
1799  // [24] = 0.737427
E357  // [25] = -0.895630
1E2C  // [26] = 0.942871
E96F  // [27] = -0.705200
1C98  // [28] = 0.893555
20B4  // [29] = 1.021973
FF6B  // [30] = -0.018188
1C87  // [31] = 0.891479
F334  // [32] = -0.399902
4127  // [33] = 2.036011
FA92  // [34] = -0.169678
1C55  // [35] = 0.885376
E7F1  // [36] = -0.751831
E923  // [37] = -0.714478
F518  // [38] = -0.340820
1E8B  // [39] = 0.954468
222A  // [40] = 1.067627
E491  // [41] = -0.857300
DC2B  // [42] = -1.119751
EB8F  // [43] = -0.638794
F40F  // [44] = -0.373169
DEE1  // [45] = -1.035034
0C38  // [46] = 0.381836
199C  // [47] = 0.800293
2512  // [48] = 1.158447
01BE  // [49] = 0.054443
FC2F  // [50] = -0.119263
0FE7  // [51] = 0.496948
4E41  // [52] = 2.445435
EDE8  // [53] = -0.565430
F9D8  // [54] = -0.192383
E9B5  // [55] = -0.696655
EC55  // [56] = -0.614624
198C  // [57] = 0.798340
E4C8  // [58] = -0.850586
1A22  // [59] = 0.816650
E0E9  // [60] = -0.971558
DE4C  // [61] = -1.053223
FA67  // [62] = -0.174927
E391  // [63] = -0.888550
FB70  // [64] = -0.142578
32A2  // [65] = 1.582275
0FA8  // [66] = 0.489258
285E  // [67] = 1.261475
E7B3  // [68] = -0.759399
EA7F  // [69] = -0.671997
F71D  // [70] = -0.277710
267F  // [71] = 1.203003
19E1  // [72] = 0.808716
EAB1  // [73] = -0.665894
E05D  // [74] = -0.988647
EA09  // [75] = -0.686401
F290  // [76] = -0.419922
E277  // [77] = -0.922974
08A0  // [78] = 0.269531
1CA3  // [79] = 0.894897
149B  // [80] = 0.643921
09DA  // [81] = 0.307861
FCF9  // [82] = -0.094604
02E2  // [83] = 0.090088
3ACB  // [84] = 1.837280
E219  // [85] = -0.934448
ECB3  // [86] = -0.603149
E61F  // [87] = -0.808716
EAC0  // [88] = -0.664062
2895  // [89] = 1.268188
E595  // [90] = -0.825562
0CAB  // [91] = 0.395874
DE56  // [92] = -1.052002
E756  // [93] = -0.770752
067C  // [94] = 0.202637
E31D  // [95] = -0.902710
FC9B  // [96] = -0.106079
D88A  // [97] = -1.233154
E858  // [98] = -0.739258
D657  // [99] = -1.301880
17C6  // [100] = 0.742920
15DB  // [101] = 0.682983
0331  // [102] = 0.099731
D3E6  // [103] = -1.378174
E492  // [104] = -0.857178
197B  // [105] = 0.796265
1F08  // [106] = 0.969727
133E  // [107] = 0.601318
06B8  // [108] = 0.209961
20C8  // [109] = 1.024414
F64C  // [110] = -0.303223
E13D  // [111] = -0.961304
F042  // [112] = -0.491943
FA82  // [113] = -0.171631
02ED  // [114] = 0.091431
0BE0  // [115] = 0.371094
D1F1  // [116] = -1.439331
24AE  // [117] = 1.146240
1691  // [118] = 0.705200
148D  // [119] = 0.642212
19C2  // [120] = 0.804932
D260  // [121] = -1.425781
1497  // [122] = 0.643433
FD1E  // [123] = -0.090088
2752  // [124] = 1.228760
1A99  // [125] = 0.831177
F1FB  // [126] = -0.438110
14AE  // [127] = 0.646240
