// Parameter: fc_out.weight
// Shape: [2, 4]
// Format: QS2_13 (16-bit signed, 2 integer bits, 13 fractional bits)
// Range: [-4.000000, 3.999878], Resolution: 7.999878
// Total values: 8
//
27B2  // [0] = 1.240479
DAEA  // [1] = -1.158936
DE95  // [2] = -1.044312
1917  // [3] = 0.784058
1B3E  // [4] = 0.851318
EA45  // [5] = -0.679077
D64D  // [6] = -1.303101
3094  // [7] = 1.518066
