// GL Coefficient Magnitudes for Fractional LIF
// alpha = 0.5, lambda = 0.052640
// History length = 16, coefficients = 15
// Format: QU0.16 (16-bit unsigned)
// Contains |g_1| to |g_{16-1}| (g_0 = 1 is implicit)
// Assumes 0 < alpha <= 1, where g_k (k>=1) are non-positive
//
8000  // |g_1| = 0.500000
2000  // |g_2| = 0.125000
1000  // |g_3| = 0.062500
0A00  // |g_4| = 0.039062
0700  // |g_5| = 0.027344
0540  // |g_6| = 0.020508
0420  // |g_7| = 0.016113
035A  // |g_8| = 0.013092
02CB  // |g_9| = 0.010910
0260  // |g_10| = 0.009277
020D  // |g_11| = 0.008011
01CB  // |g_12| = 0.007004
0196  // |g_13| = 0.006195
016B  // |g_14| = 0.005539
0146  // |g_15| = 0.004974
