// GL Coefficient Magnitudes for Fractional LIF
// alpha = 0.5, lambda = 0.052640
// History length = 64, coefficients = 63
// Format: QU0.16 (16-bit unsigned)
// Contains |g_1| to |g_{64-1}| (g_0 = 1 is implicit)
// Assumes 0 < alpha <= 1, where g_k (k>=1) are non-positive
//
8000  // |g_1| = 0.500000
2000  // |g_2| = 0.125000
1000  // |g_3| = 0.062500
0A00  // |g_4| = 0.039062
0700  // |g_5| = 0.027344
0540  // |g_6| = 0.020508
0420  // |g_7| = 0.016113
035A  // |g_8| = 0.013092
02CB  // |g_9| = 0.010910
0260  // |g_10| = 0.009277
020D  // |g_11| = 0.008011
01CB  // |g_12| = 0.007004
0196  // |g_13| = 0.006195
016B  // |g_14| = 0.005539
0146  // |g_15| = 0.004974
0128  // |g_16| = 0.004517
010E  // |g_17| = 0.004120
00F7  // |g_18| = 0.003769
00E4  // |g_19| = 0.003479
00D3  // |g_20| = 0.003220
00C4  // |g_21| = 0.002991
00B6  // |g_22| = 0.002777
00AA  // |g_23| = 0.002594
00A0  // |g_24| = 0.002441
0096  // |g_25| = 0.002289
008E  // |g_26| = 0.002167
0086  // |g_27| = 0.002045
007E  // |g_28| = 0.001923
0078  // |g_29| = 0.001831
0072  // |g_30| = 0.001740
006C  // |g_31| = 0.001648
0067  // |g_32| = 0.001572
0063  // |g_33| = 0.001511
005E  // |g_34| = 0.001434
005A  // |g_35| = 0.001373
0056  // |g_36| = 0.001312
0053  // |g_37| = 0.001266
0050  // |g_38| = 0.001221
004D  // |g_39| = 0.001175
004A  // |g_40| = 0.001129
0047  // |g_41| = 0.001083
0045  // |g_42| = 0.001053
0042  // |g_43| = 0.001007
0040  // |g_44| = 0.000977
003E  // |g_45| = 0.000946
003C  // |g_46| = 0.000916
003A  // |g_47| = 0.000885
0038  // |g_48| = 0.000854
0036  // |g_49| = 0.000824
0035  // |g_50| = 0.000809
0033  // |g_51| = 0.000778
0032  // |g_52| = 0.000763
0030  // |g_53| = 0.000732
002F  // |g_54| = 0.000717
002E  // |g_55| = 0.000702
002C  // |g_56| = 0.000671
002B  // |g_57| = 0.000656
002A  // |g_58| = 0.000641
0029  // |g_59| = 0.000626
0028  // |g_60| = 0.000610
0027  // |g_61| = 0.000595
0026  // |g_62| = 0.000580
0025  // |g_63| = 0.000565
