// Parameter: fc1.bias
// Shape: [32]
// Format: QS2_13 (16-bit signed, 2 integer bits, 13 fractional bits)
// Range: [-4.000000, 3.999878], Resolution: 7.999878
// Total values: 32
//
1475  // [0] = 0.639282
16B4  // [1] = 0.709473
11B9  // [2] = 0.553833
1285  // [3] = 0.578735
0121  // [4] = 0.035278
1E4B  // [5] = 0.946655
14E0  // [6] = 0.652344
0805  // [7] = 0.250610
12FE  // [8] = 0.593506
1A28  // [9] = 0.817383
1986  // [10] = 0.797607
0653  // [11] = 0.197632
0B5B  // [12] = 0.354858
1B85  // [13] = 0.859985
FDA4  // [14] = -0.073730
1AC4  // [15] = 0.836426
16DE  // [16] = 0.714600
FF62  // [17] = -0.019287
0439  // [18] = 0.131958
0264  // [19] = 0.074707
1E88  // [20] = 0.954102
0C22  // [21] = 0.379150
FA2A  // [22] = -0.182373
F700  // [23] = -0.281250
09C8  // [24] = 0.305664
19C8  // [25] = 0.805664
020D  // [26] = 0.064087
0441  // [27] = 0.132935
FA9D  // [28] = -0.168335
18B1  // [29] = 0.771606
12AC  // [30] = 0.583496
0745  // [31] = 0.227173
