// Parameter: fc2.weight
// Shape: [16, 32]
// Format: QS2_13 (16-bit signed, 2 integer bits, 13 fractional bits)
// Range: [-4.000000, 3.999878], Resolution: 7.999878
// Total values: 512
//
ECCC  // [0] = -0.600098
E578  // [1] = -0.829102
E938  // [2] = -0.711914
F4CF  // [3] = -0.349731
1267  // [4] = 0.575073
E5CA  // [5] = -0.819092
E0F3  // [6] = -0.970337
01EA  // [7] = 0.059814
F653  // [8] = -0.302368
E268  // [9] = -0.924805
ED58  // [10] = -0.583008
0F00  // [11] = 0.468750
F76D  // [12] = -0.267944
F44C  // [13] = -0.365723
101F  // [14] = 0.503784
DF3E  // [15] = -1.023682
EA26  // [16] = -0.682861
056D  // [17] = 0.169556
09B9  // [18] = 0.303833
0939  // [19] = 0.288208
F1BD  // [20] = -0.445679
FA87  // [21] = -0.171021
10A7  // [22] = 0.520386
0693  // [23] = 0.205444
F607  // [24] = -0.311646
E266  // [25] = -0.925049
0A68  // [26] = 0.325195
1721  // [27] = 0.722778
0296  // [28] = 0.080811
E438  // [29] = -0.868164
D793  // [30] = -1.263306
162A  // [31] = 0.692627
E9E9  // [32] = -0.690308
E685  // [33] = -0.796265
F17C  // [34] = -0.453613
FA14  // [35] = -0.185059
12D6  // [36] = 0.588623
EA27  // [37] = -0.682739
E931  // [38] = -0.712769
0C81  // [39] = 0.390747
F576  // [40] = -0.329346
E607  // [41] = -0.811646
ED59  // [42] = -0.582886
0BFC  // [43] = 0.374512
F945  // [44] = -0.210327
F89C  // [45] = -0.230957
1156  // [46] = 0.541748
ED9C  // [47] = -0.574707
E9C3  // [48] = -0.694946
0171  // [49] = 0.045044
10D9  // [50] = 0.526489
FF84  // [51] = -0.015137
F571  // [52] = -0.329956
F997  // [53] = -0.200317
095B  // [54] = 0.292358
0A96  // [55] = 0.330811
0E2F  // [56] = 0.443237
E7F9  // [57] = -0.750854
077E  // [58] = 0.234131
17A2  // [59] = 0.738525
06B8  // [60] = 0.209961
E3EE  // [61] = -0.877197
E215  // [62] = -0.934937
16CA  // [63] = 0.712158
0F18  // [64] = 0.471680
105C  // [65] = 0.511230
0B78  // [66] = 0.358398
098E  // [67] = 0.298584
EEF4  // [68] = -0.532715
180D  // [69] = 0.751587
1CC0  // [70] = 0.898438
FDFE  // [71] = -0.062744
077C  // [72] = 0.233887
1C75  // [73] = 0.889282
144F  // [74] = 0.634644
EC94  // [75] = -0.606934
0B52  // [76] = 0.353760
0FCD  // [77] = 0.493774
F36F  // [78] = -0.392700
15F4  // [79] = 0.686035
0EB2  // [80] = 0.459229
F462  // [81] = -0.363037
ED89  // [82] = -0.577026
FAFF  // [83] = -0.156372
0941  // [84] = 0.289185
0B9D  // [85] = 0.362915
F7CD  // [86] = -0.256226
F7A7  // [87] = -0.260864
087C  // [88] = 0.265137
1B72  // [89] = 0.857666
F5A0  // [90] = -0.324219
E6BF  // [91] = -0.789185
0277  // [92] = 0.077026
138F  // [93] = 0.611206
1F5D  // [94] = 0.980103
E79C  // [95] = -0.762207
0FB1  // [96] = 0.490356
118A  // [97] = 0.548096
0C1F  // [98] = 0.378784
0DCB  // [99] = 0.431030
E95C  // [100] = -0.707520
1B59  // [101] = 0.854614
1E83  // [102] = 0.953491
FB92  // [103] = -0.138428
0C34  // [104] = 0.381348
1795  // [105] = 0.736938
1253  // [106] = 0.572632
F2F0  // [107] = -0.408203
0390  // [108] = 0.111328
069F  // [109] = 0.206909
F046  // [110] = -0.491455
17F1  // [111] = 0.748169
191B  // [112] = 0.784546
FB53  // [113] = -0.146118
F084  // [114] = -0.483887
F37F  // [115] = -0.390747
0F1C  // [116] = 0.472168
0845  // [117] = 0.258423
F6B0  // [118] = -0.291016
FBEA  // [119] = -0.127686
0029  // [120] = 0.005005
18C5  // [121] = 0.774048
F932  // [122] = -0.212646
E497  // [123] = -0.856567
FFE1  // [124] = -0.003784
157D  // [125] = 0.671509
2533  // [126] = 1.162476
E656  // [127] = -0.802002
1D35  // [128] = 0.912720
1B43  // [129] = 0.851929
11B5  // [130] = 0.553345
0EA3  // [131] = 0.457397
EBCA  // [132] = -0.631592
1C24  // [133] = 0.879395
18D5  // [134] = 0.776001
F350  // [135] = -0.396484
0B35  // [136] = 0.350220
1CB6  // [137] = 0.897217
147F  // [138] = 0.640503
F184  // [139] = -0.452637
0B51  // [140] = 0.353638
0C9D  // [141] = 0.394165
F4B9  // [142] = -0.352417
1716  // [143] = 0.721436
1DD1  // [144] = 0.931763
FABC  // [145] = -0.164551
F562  // [146] = -0.331787
FE4E  // [147] = -0.052979
0EE1  // [148] = 0.464966
0C62  // [149] = 0.386963
FB60  // [150] = -0.144531
F4C4  // [151] = -0.351074
F8E5  // [152] = -0.222046
21C1  // [153] = 1.054810
F3C7  // [154] = -0.381958
E5A8  // [155] = -0.823242
F983  // [156] = -0.202759
1B57  // [157] = 0.854370
236E  // [158] = 1.107178
EBDC  // [159] = -0.629395
03E8  // [160] = 0.122070
186C  // [161] = 0.763184
175E  // [162] = 0.730225
0C87  // [163] = 0.391479
FBB1  // [164] = -0.134644
120F  // [165] = 0.564331
1A30  // [166] = 0.818359
0A2C  // [167] = 0.317871
0555  // [168] = 0.166626
12CF  // [169] = 0.587769
126A  // [170] = 0.575439
F724  // [171] = -0.276855
08EA  // [172] = 0.278564
059B  // [173] = 0.175171
EEF9  // [174] = -0.532104
18F5  // [175] = 0.779907
140A  // [176] = 0.626221
F3BA  // [177] = -0.383545
F95C  // [178] = -0.207520
F45F  // [179] = -0.363403
0C47  // [180] = 0.383667
03B0  // [181] = 0.115234
F2F9  // [182] = -0.407104
FCAB  // [183] = -0.104126
1790  // [184] = 0.736328
1B8C  // [185] = 0.860840
FC66  // [186] = -0.112549
ECC7  // [187] = -0.600708
03DF  // [188] = 0.120972
154F  // [189] = 0.665894
1D5E  // [190] = 0.917725
ECE9  // [191] = -0.596558
1597  // [192] = 0.674683
1F5E  // [193] = 0.980225
16F6  // [194] = 0.717529
09F6  // [195] = 0.311279
E5C0  // [196] = -0.820312
1C84  // [197] = 0.891113
1F5F  // [198] = 0.980347
0165  // [199] = 0.043579
082F  // [200] = 0.255737
1D1F  // [201] = 0.910034
1649  // [202] = 0.696411
F392  // [203] = -0.388428
0BB6  // [204] = 0.365967
0CE9  // [205] = 0.403442
E909  // [206] = -0.717651
1B33  // [207] = 0.849976
18B4  // [208] = 0.771973
FA58  // [209] = -0.176758
F0A1  // [210] = -0.480347
F852  // [211] = -0.239990
15B5  // [212] = 0.678345
03CE  // [213] = 0.118896
F751  // [214] = -0.271362
F8D0  // [215] = -0.224609
0340  // [216] = 0.101562
22AC  // [217] = 1.083496
F2F8  // [218] = -0.407227
E888  // [219] = -0.733398
FD13  // [220] = -0.091431
1AB4  // [221] = 0.834473
206B  // [222] = 1.013062
E22B  // [223] = -0.932251
E625  // [224] = -0.807983
E88F  // [225] = -0.732544
EA03  // [226] = -0.687134
F4C9  // [227] = -0.350464
1793  // [228] = 0.736694
E170  // [229] = -0.955078
E776  // [230] = -0.766846
1065  // [231] = 0.512329
F9A8  // [232] = -0.198242
DF3B  // [233] = -1.024048
EC11  // [234] = -0.622925
0FF0  // [235] = 0.498047
FB9B  // [236] = -0.137329
F363  // [237] = -0.394165
0C75  // [238] = 0.389282
EB38  // [239] = -0.649414
E6B2  // [240] = -0.790771
0895  // [241] = 0.268188
0C94  // [242] = 0.393066
FA17  // [243] = -0.184692
EE0E  // [244] = -0.560791
F61D  // [245] = -0.308960
019E  // [246] = 0.050537
03FF  // [247] = 0.124878
0A77  // [248] = 0.327026
E405  // [249] = -0.874390
0817  // [250] = 0.252808
1578  // [251] = 0.670898
0569  // [252] = 0.169067
E67A  // [253] = -0.797607
E39B  // [254] = -0.887329
1C12  // [255] = 0.877197
D891  // [256] = -1.232300
E6D5  // [257] = -0.786499
F316  // [258] = -0.403564
F400  // [259] = -0.375000
132F  // [260] = 0.599487
E64D  // [261] = -0.803101
EECE  // [262] = -0.537354
189C  // [263] = 0.769043
FDD1  // [264] = -0.068237
E0E6  // [265] = -0.971924
EB91  // [266] = -0.638550
0CFC  // [267] = 0.405762
F8E8  // [268] = -0.221680
F9AF  // [269] = -0.197388
0FE8  // [270] = 0.497070
EF2C  // [271] = -0.525879
DF38  // [272] = -1.024414
04D9  // [273] = 0.151489
10E7  // [274] = 0.528198
F48E  // [275] = -0.357666
F397  // [276] = -0.387817
00E9  // [277] = 0.028442
FDB8  // [278] = -0.071289
03B4  // [279] = 0.115723
0F5F  // [280] = 0.480347
E43A  // [281] = -0.867920
0795  // [282] = 0.236938
1073  // [283] = 0.514038
0597  // [284] = 0.174683
DB2C  // [285] = -1.150879
E030  // [286] = -0.994141
162C  // [287] = 0.692871
DE82  // [288] = -1.046631
F965  // [289] = -0.206421
0098  // [290] = 0.018555
FD86  // [291] = -0.077393
0B54  // [292] = 0.354004
FE2C  // [293] = -0.057129
0417  // [294] = 0.127808
2198  // [295] = 1.049805
FD68  // [296] = -0.081055
F907  // [297] = -0.217896
FC2A  // [298] = -0.119873
00E8  // [299] = 0.028320
FF82  // [300] = -0.015381
F977  // [301] = -0.204224
FCFA  // [302] = -0.094482
0F5D  // [303] = 0.480103
EC28  // [304] = -0.620117
FE9D  // [305] = -0.043335
09B7  // [306] = 0.303589
F13D  // [307] = -0.461304
FFB5  // [308] = -0.009155
FE9A  // [309] = -0.043701
F925  // [310] = -0.214233
01BD  // [311] = 0.054321
1B2F  // [312] = 0.849487
F47C  // [313] = -0.359863
FD7E  // [314] = -0.078369
FCAE  // [315] = -0.103760
05D9  // [316] = 0.182739
F53B  // [317] = -0.336548
012B  // [318] = 0.036499
01A2  // [319] = 0.051025
EE03  // [320] = -0.562134
E4CF  // [321] = -0.849731
EABC  // [322] = -0.664551
F5EB  // [323] = -0.315063
1B4C  // [324] = 0.853027
E5C3  // [325] = -0.819946
E67B  // [326] = -0.797485
0506  // [327] = 0.156982
F44D  // [328] = -0.365601
DEC9  // [329] = -1.037964
E65B  // [330] = -0.801392
0CF0  // [331] = 0.404297
F0CB  // [332] = -0.475220
F502  // [333] = -0.343506
1489  // [334] = 0.641724
E458  // [335] = -0.864258
E80F  // [336] = -0.748169
05D6  // [337] = 0.182373
0DD2  // [338] = 0.431885
0380  // [339] = 0.109375
F33A  // [340] = -0.399170
F630  // [341] = -0.306641
0A65  // [342] = 0.324829
0262  // [343] = 0.074463
04B8  // [344] = 0.147461
E33E  // [345] = -0.898682
0B3F  // [346] = 0.351440
13C3  // [347] = 0.617554
053C  // [348] = 0.163574
E704  // [349] = -0.780762
DA7D  // [350] = -1.172241
1A83  // [351] = 0.828491
E935  // [352] = -0.712280
E814  // [353] = -0.747559
E84A  // [354] = -0.740967
F7B6  // [355] = -0.259033
1745  // [356] = 0.727173
E27D  // [357] = -0.922241
E37D  // [358] = -0.890991
0550  // [359] = 0.166016
F9B3  // [360] = -0.196899
E59F  // [361] = -0.824341
E9F1  // [362] = -0.689331
14D3  // [363] = 0.650757
F0B0  // [364] = -0.478516
F0E2  // [365] = -0.472412
1008  // [366] = 0.500977
E39E  // [367] = -0.886963
E4A7  // [368] = -0.854614
08B3  // [369] = 0.271851
1070  // [370] = 0.513672
09DA  // [371] = 0.307861
F0D4  // [372] = -0.474121
FABC  // [373] = -0.164551
0B49  // [374] = 0.352661
04EB  // [375] = 0.153687
F9E4  // [376] = -0.190918
DC9E  // [377] = -1.105713
0CCF  // [378] = 0.400269
14E3  // [379] = 0.652710
0018  // [380] = 0.002930
E67F  // [381] = -0.796997
DE0D  // [382] = -1.060913
1770  // [383] = 0.732422
E888  // [384] = -0.733398
E8E6  // [385] = -0.721924
F01D  // [386] = -0.496460
F4B7  // [387] = -0.352661
158A  // [388] = 0.673096
EA2E  // [389] = -0.681885
E595  // [390] = -0.825562
08A5  // [391] = 0.270142
F955  // [392] = -0.208374
E20F  // [393] = -0.935669
E774  // [394] = -0.767090
110F  // [395] = 0.533081
F5BF  // [396] = -0.320435
F148  // [397] = -0.459961
0BDD  // [398] = 0.370728
E448  // [399] = -0.866211
EB7C  // [400] = -0.641113
07B8  // [401] = 0.241211
0FC5  // [402] = 0.492798
FF0D  // [403] = -0.029663
EC10  // [404] = -0.623047
F85A  // [405] = -0.239014
0D38  // [406] = 0.413086
03EA  // [407] = 0.122314
0028  // [408] = 0.004883
DF3E  // [409] = -1.023682
09E6  // [410] = 0.309326
169D  // [411] = 0.706665
02AB  // [412] = 0.083374
E4AD  // [413] = -0.853882
DB0C  // [414] = -1.154785
12D2  // [415] = 0.588135
E754  // [416] = -0.770996
DCEF  // [417] = -1.095825
EC42  // [418] = -0.616943
F842  // [419] = -0.241943
1B49  // [420] = 0.852661
E799  // [421] = -0.762573
E94B  // [422] = -0.709595
0A9E  // [423] = 0.331787
F3F9  // [424] = -0.375854
DC5F  // [425] = -1.113403
E8A6  // [426] = -0.729736
0C65  // [427] = 0.387329
F48B  // [428] = -0.358032
F69A  // [429] = -0.293701
0F03  // [430] = 0.469116
E6C8  // [431] = -0.788086
E5F0  // [432] = -0.814453
08D6  // [433] = 0.276123
0A7F  // [434] = 0.328003
0836  // [435] = 0.256592
EAEE  // [436] = -0.658447
FD43  // [437] = -0.085571
09D5  // [438] = 0.307251
0860  // [439] = 0.261719
02BB  // [440] = 0.085327
DE8D  // [441] = -1.045288
0B9B  // [442] = 0.362671
102E  // [443] = 0.505615
06A1  // [444] = 0.207153
DCF5  // [445] = -1.095093
D858  // [446] = -1.239258
15DF  // [447] = 0.683472
E2A3  // [448] = -0.917603
DC3A  // [449] = -1.117920
E5DE  // [450] = -0.816650
F1AA  // [451] = -0.447998
1645  // [452] = 0.695923
DF93  // [453] = -1.013306
E861  // [454] = -0.738159
0EA6  // [455] = 0.457764
F503  // [456] = -0.343384
E547  // [457] = -0.835083
EC0E  // [458] = -0.623291
13F3  // [459] = 0.623413
F278  // [460] = -0.422852
F91A  // [461] = -0.215576
15FB  // [462] = 0.686890
E313  // [463] = -0.903931
E4C4  // [464] = -0.851074
0675  // [465] = 0.201782
0B7E  // [466] = 0.359131
FDF3  // [467] = -0.064087
EBB3  // [468] = -0.634399
F727  // [469] = -0.276489
08AB  // [470] = 0.270874
05BF  // [471] = 0.179565
0A98  // [472] = 0.331055
E0D2  // [473] = -0.974365
0D93  // [474] = 0.424194
10ED  // [475] = 0.528931
0488  // [476] = 0.141602
DAB6  // [477] = -1.165283
DD0C  // [478] = -1.092285
1728  // [479] = 0.723633
E09D  // [480] = -0.980835
E3E9  // [481] = -0.877808
EFC4  // [482] = -0.507324
F252  // [483] = -0.427490
14A6  // [484] = 0.645264
E3C6  // [485] = -0.882080
EB2B  // [486] = -0.651001
108A  // [487] = 0.516846
FDAD  // [488] = -0.072632
E6C3  // [489] = -0.788696
EC1A  // [490] = -0.621826
09AD  // [491] = 0.302368
F422  // [492] = -0.370850
F40C  // [493] = -0.373535
0D3D  // [494] = 0.413696
EBA7  // [495] = -0.635864
E12E  // [496] = -0.963135
FF22  // [497] = -0.027100
0E54  // [498] = 0.447754
FAE9  // [499] = -0.159058
F1AC  // [500] = -0.447754
FF3E  // [501] = -0.023682
033A  // [502] = 0.100830
094E  // [503] = 0.290771
0DCD  // [504] = 0.431274
E3CA  // [505] = -0.881592
05BB  // [506] = 0.179077
1215  // [507] = 0.565063
01B1  // [508] = 0.052856
E104  // [509] = -0.968262
E3C7  // [510] = -0.881958
1935  // [511] = 0.787720
