// Parameter: fc1.bias
// Shape: [32]
// Format: QS2_13 (16-bit signed, 2 integer bits, 13 fractional bits)
// Range: [-4.000000, 3.999878], Resolution: 7.999878
// Total values: 32
//
19D4  // [0] = 0.807129
1E65  // [1] = 0.949829
1233  // [2] = 0.568726
0207  // [3] = 0.063354
0D6E  // [4] = 0.419678
1910  // [5] = 0.783203
1260  // [6] = 0.574219
0A05  // [7] = 0.313110
049A  // [8] = 0.143799
1183  // [9] = 0.547241
05A7  // [10] = 0.176636
18D7  // [11] = 0.776245
F990  // [12] = -0.201172
1112  // [13] = 0.533447
0326  // [14] = 0.098389
11A8  // [15] = 0.551758
249E  // [16] = 1.144287
19B2  // [17] = 0.802979
055F  // [18] = 0.167847
0ABE  // [19] = 0.335693
04DD  // [20] = 0.151978
17DA  // [21] = 0.745361
18C0  // [22] = 0.773438
FCAB  // [23] = -0.104126
FAE8  // [24] = -0.159180
20D2  // [25] = 1.025635
FE8B  // [26] = -0.045532
1482  // [27] = 0.640869
F870  // [28] = -0.236328
F452  // [29] = -0.364990
1716  // [30] = 0.721436
0A28  // [31] = 0.317383
