// Parameter: fc1.weight
// Shape: [32, 4]
// Format: QS2_13 (16-bit signed, 2 integer bits, 13 fractional bits)
// Range: [-4.000000, 3.999878], Resolution: 7.999878
// Total values: 128
//
0E97  // [0] = 0.455933
04E8  // [1] = 0.153320
07FF  // [2] = 0.249878
0380  // [3] = 0.109375
0A02  // [4] = 0.312744
03C9  // [5] = 0.118286
0459  // [6] = 0.135864
0224  // [7] = 0.066895
0258  // [8] = 0.073242
FBC6  // [9] = -0.132080
EC22  // [10] = -0.620850
FBB5  // [11] = -0.134155
E215  // [12] = -0.934937
F153  // [13] = -0.458618
0302  // [14] = 0.093994
F876  // [15] = -0.235596
13AB  // [16] = 0.614624
19CA  // [17] = 0.805908
0A07  // [18] = 0.313354
11E4  // [19] = 0.559082
EE47  // [20] = -0.553833
FE58  // [21] = -0.051758
0529  // [22] = 0.161255
FFE6  // [23] = -0.003174
BA31  // [24] = -2.181519
DB9B  // [25] = -1.137329
C353  // [26] = -1.896118
E7BF  // [27] = -0.757935
1201  // [28] = 0.562622
0E22  // [29] = 0.441650
1358  // [30] = 0.604492
092A  // [31] = 0.286377
0545  // [32] = 0.164673
FC89  // [33] = -0.108276
E7CE  // [34] = -0.756104
F92A  // [35] = -0.213623
0001  // [36] = 0.000122
FDAB  // [37] = -0.072876
F5C3  // [38] = -0.319946
FD29  // [39] = -0.088745
E82C  // [40] = -0.744629
F486  // [41] = -0.358643
D351  // [42] = -1.396362
F51A  // [43] = -0.340576
00C4  // [44] = 0.023926
00D7  // [45] = 0.026245
0EFC  // [46] = 0.468262
0175  // [47] = 0.045532
FA0E  // [48] = -0.185791
FD22  // [49] = -0.089600
03A0  // [50] = 0.113281
FF30  // [51] = -0.025391
FF9F  // [52] = -0.011841
FF2B  // [53] = -0.026001
F603  // [54] = -0.312134
FEED  // [55] = -0.033569
15F2  // [56] = 0.685791
07C2  // [57] = 0.242432
F6EA  // [58] = -0.283936
033A  // [59] = 0.100830
000D  // [60] = 0.001587
0279  // [61] = 0.077271
0C48  // [62] = 0.383789
02F7  // [63] = 0.092651
0792  // [64] = 0.236572
0407  // [65] = 0.125854
1767  // [66] = 0.731323
0332  // [67] = 0.099854
005F  // [68] = 0.011597
00BB  // [69] = 0.022827
07CC  // [70] = 0.243652
0261  // [71] = 0.074341
20AF  // [72] = 1.021362
02A2  // [73] = 0.082275
076A  // [74] = 0.231689
0117  // [75] = 0.034058
2E03  // [76] = 1.437866
176C  // [77] = 0.731934
2B34  // [78] = 1.350098
1325  // [79] = 0.598267
0397  // [80] = 0.112183
09C8  // [81] = 0.305664
18E5  // [82] = 0.777954
0732  // [83] = 0.224854
05E6  // [84] = 0.184326
06E5  // [85] = 0.215454
0A41  // [86] = 0.320435
04CD  // [87] = 0.150024
FDEA  // [88] = -0.065186
0366  // [89] = 0.106201
0E20  // [90] = 0.441406
0605  // [91] = 0.188110
1480  // [92] = 0.640625
04F8  // [93] = 0.155273
EB6D  // [94] = -0.642944
FFBF  // [95] = -0.007935
FD2C  // [96] = -0.088379
0A26  // [97] = 0.317139
1421  // [98] = 0.629028
09C2  // [99] = 0.304932
28CB  // [100] = 1.274780
13E7  // [101] = 0.621948
0FB4  // [102] = 0.490723
0C8D  // [103] = 0.392212
00B4  // [104] = 0.021973
FFEF  // [105] = -0.002075
1E30  // [106] = 0.943359
0593  // [107] = 0.174194
F124  // [108] = -0.464355
FE5F  // [109] = -0.050903
053A  // [110] = 0.163330
FFA6  // [111] = -0.010986
F64B  // [112] = -0.303345
FFE1  // [113] = -0.003784
1065  // [114] = 0.512329
0121  // [115] = 0.035278
024A  // [116] = 0.071533
0449  // [117] = 0.133911
0FA0  // [118] = 0.488281
0636  // [119] = 0.194092
0315  // [120] = 0.096313
137F  // [121] = 0.609253
3050  // [122] = 1.509766
0FF8  // [123] = 0.499023
0CBB  // [124] = 0.397827
0E81  // [125] = 0.453247
2FB6  // [126] = 1.490967
0F18  // [127] = 0.471680
