// Parameter: fc2.weight
// Shape: [16, 32]
// Format: QS2_13 (16-bit signed, 2 integer bits, 13 fractional bits)
// Range: [-4.000000, 3.999878], Resolution: 7.999878
// Total values: 512
//
1135  // [0] = 0.537720
047F  // [1] = 0.140503
010E  // [2] = 0.032959
FD2C  // [3] = -0.088379
0CC1  // [4] = 0.398560
12F4  // [5] = 0.592285
1434  // [6] = 0.631348
0934  // [7] = 0.287598
034A  // [8] = 0.102783
03D3  // [9] = 0.119507
FF9C  // [10] = -0.012207
1A9F  // [11] = 0.831909
FD98  // [12] = -0.075195
063E  // [13] = 0.195068
F664  // [14] = -0.300293
0C2E  // [15] = 0.380615
1874  // [16] = 0.764160
1E65  // [17] = 0.949829
FB16  // [18] = -0.153564
F7D0  // [19] = -0.255859
FE98  // [20] = -0.043945
0D63  // [21] = 0.418335
09A9  // [22] = 0.301880
0BE1  // [23] = 0.371216
F393  // [24] = -0.388306
0DCE  // [25] = 0.431396
010D  // [26] = 0.032837
0FC3  // [27] = 0.492554
F465  // [28] = -0.362671
F1D9  // [29] = -0.442261
06DC  // [30] = 0.214355
0D6F  // [31] = 0.419800
0D41  // [32] = 0.414185
1195  // [33] = 0.549438
0840  // [34] = 0.257812
FF54  // [35] = -0.020996
05F0  // [36] = 0.185547
0D05  // [37] = 0.406860
0D7E  // [38] = 0.421631
0746  // [39] = 0.227295
03BF  // [40] = 0.117065
106D  // [41] = 0.513306
0327  // [42] = 0.098511
10B5  // [43] = 0.522095
F106  // [44] = -0.468018
0F35  // [45] = 0.475220
F6C6  // [46] = -0.288330
0B1B  // [47] = 0.347046
0BB6  // [48] = 0.365967
1A33  // [49] = 0.818726
F798  // [50] = -0.262695
FAF7  // [51] = -0.157349
FBE7  // [52] = -0.128052
09A0  // [53] = 0.300781
130F  // [54] = 0.595581
FFC9  // [55] = -0.006714
F5C6  // [56] = -0.319580
0A72  // [57] = 0.326416
F5BE  // [58] = -0.320557
0D49  // [59] = 0.415161
FDF3  // [60] = -0.064087
EE1B  // [61] = -0.559204
02E2  // [62] = 0.090088
009F  // [63] = 0.019409
0751  // [64] = 0.228638
0AC7  // [65] = 0.336792
0779  // [66] = 0.233521
065B  // [67] = 0.198608
FFB6  // [68] = -0.009033
0C90  // [69] = 0.392578
0D16  // [70] = 0.408936
047F  // [71] = 0.140503
008E  // [72] = 0.017334
0FBD  // [73] = 0.491821
041B  // [74] = 0.128296
0C4C  // [75] = 0.384277
EAEB  // [76] = -0.658813
0F89  // [77] = 0.485474
F955  // [78] = -0.208374
0881  // [79] = 0.265747
0CE2  // [80] = 0.402588
0F08  // [81] = 0.469727
EEEF  // [82] = -0.533325
0019  // [83] = 0.003052
F4D7  // [84] = -0.348755
0BC2  // [85] = 0.367432
0903  // [86] = 0.281616
EA6B  // [87] = -0.674438
F2A8  // [88] = -0.416992
1108  // [89] = 0.532227
EC37  // [90] = -0.618286
0614  // [91] = 0.189941
F422  // [92] = -0.370850
F73C  // [93] = -0.273926
05BD  // [94] = 0.179321
FCE6  // [95] = -0.096924
EE8D  // [96] = -0.545288
F194  // [97] = -0.450684
F506  // [98] = -0.343018
005E  // [99] = 0.011475
F877  // [100] = -0.235474
EACC  // [101] = -0.662598
EBC0  // [102] = -0.632812
F8DE  // [103] = -0.222900
FC4F  // [104] = -0.115356
ED83  // [105] = -0.577759
FF3E  // [106] = -0.023682
E561  // [107] = -0.831909
12C3  // [108] = 0.586304
EB71  // [109] = -0.642456
07CB  // [110] = 0.243530
EFD9  // [111] = -0.504761
EA0C  // [112] = -0.686035
E059  // [113] = -0.989136
0F50  // [114] = 0.478516
0461  // [115] = 0.136841
0C2B  // [116] = 0.380249
F08D  // [117] = -0.482788
F006  // [118] = -0.499268
0B12  // [119] = 0.345947
1170  // [120] = 0.544922
EB76  // [121] = -0.641846
15B3  // [122] = 0.678101
F1E5  // [123] = -0.440796
0E38  // [124] = 0.444336
1159  // [125] = 0.542114
FA97  // [126] = -0.169067
0361  // [127] = 0.105591
063A  // [128] = 0.194580
03E0  // [129] = 0.121094
068A  // [130] = 0.204346
F634  // [131] = -0.306152
092D  // [132] = 0.286743
073F  // [133] = 0.226440
0B1E  // [134] = 0.347412
0868  // [135] = 0.262695
022E  // [136] = 0.068115
0B04  // [137] = 0.344238
FD48  // [138] = -0.084961
07F7  // [139] = 0.248901
FC32  // [140] = -0.118896
0991  // [141] = 0.298950
F875  // [142] = -0.235718
0A18  // [143] = 0.315430
08C9  // [144] = 0.274536
0CAB  // [145] = 0.395874
F4C5  // [146] = -0.350952
FEA3  // [147] = -0.042603
FBAC  // [148] = -0.135254
0A02  // [149] = 0.312744
0232  // [150] = 0.068604
0209  // [151] = 0.063599
F5FD  // [152] = -0.312866
0875  // [153] = 0.264282
F7E8  // [154] = -0.252930
083D  // [155] = 0.257446
F899  // [156] = -0.231323
F406  // [157] = -0.374268
054C  // [158] = 0.165527
0276  // [159] = 0.076904
EE1B  // [160] = -0.559204
EAB3  // [161] = -0.665649
F666  // [162] = -0.300049
004F  // [163] = 0.009644
F961  // [164] = -0.206909
EECD  // [165] = -0.537476
ED8B  // [166] = -0.576782
FA8E  // [167] = -0.170166
FBC3  // [168] = -0.132446
E9F8  // [169] = -0.688477
FC0B  // [170] = -0.123657
EDBA  // [171] = -0.571045
1603  // [172] = 0.687866
E699  // [173] = -0.793823
060C  // [174] = 0.188965
F600  // [175] = -0.312500
ECAC  // [176] = -0.604004
E38C  // [177] = -0.889160
0D95  // [178] = 0.424438
0462  // [179] = 0.136963
06D6  // [180] = 0.213623
EF93  // [181] = -0.513306
ED5F  // [182] = -0.582153
0E28  // [183] = 0.442383
0DDD  // [184] = 0.433228
F059  // [185] = -0.489136
1561  // [186] = 0.668091
F69E  // [187] = -0.293213
0CF7  // [188] = 0.405151
1130  // [189] = 0.537109
FA76  // [190] = -0.173096
0189  // [191] = 0.047974
E71C  // [192] = -0.777832
E976  // [193] = -0.704346
F171  // [194] = -0.454956
FA4D  // [195] = -0.178101
F894  // [196] = -0.231934
EBAA  // [197] = -0.635498
E9FF  // [198] = -0.687622
FF66  // [199] = -0.018799
F9DE  // [200] = -0.191650
E7BB  // [201] = -0.758423
FD76  // [202] = -0.079346
E4F4  // [203] = -0.845215
1940  // [204] = 0.789062
E658  // [205] = -0.801758
0615  // [206] = 0.190063
F772  // [207] = -0.267334
E9CA  // [208] = -0.694092
DB76  // [209] = -1.141846
0B94  // [210] = 0.361816
FD8A  // [211] = -0.076904
0ECE  // [212] = 0.462646
E7F9  // [213] = -0.750854
EFAC  // [214] = -0.510254
0BBF  // [215] = 0.367065
0FF7  // [216] = 0.498901
EAAE  // [217] = -0.666260
1A25  // [218] = 0.817017
F38D  // [219] = -0.389038
0AF2  // [220] = 0.342041
0AF2  // [221] = 0.342041
FB5D  // [222] = -0.144897
0D67  // [223] = 0.418823
ED95  // [224] = -0.575562
F1E4  // [225] = -0.440918
F775  // [226] = -0.266968
025A  // [227] = 0.073486
F985  // [228] = -0.202515
E754  // [229] = -0.770996
EDCB  // [230] = -0.568970
F771  // [231] = -0.267456
F52A  // [232] = -0.338623
F2A6  // [233] = -0.417236
000E  // [234] = 0.001709
E372  // [235] = -0.892334
0D79  // [236] = 0.421021
ED5B  // [237] = -0.582642
0875  // [238] = 0.264282
EF89  // [239] = -0.514526
E66D  // [240] = -0.799194
E12B  // [241] = -0.963501
0936  // [242] = 0.287842
0266  // [243] = 0.074951
0174  // [244] = 0.045410
E93B  // [245] = -0.711548
EEED  // [246] = -0.533569
0333  // [247] = 0.099976
0A48  // [248] = 0.321289
EFD8  // [249] = -0.504883
0B74  // [250] = 0.357910
EE62  // [251] = -0.550537
0B33  // [252] = 0.349976
0E0F  // [253] = 0.439331
FAB7  // [254] = -0.165161
F5DE  // [255] = -0.316650
0D2E  // [256] = 0.411865
13DB  // [257] = 0.620483
0B8E  // [258] = 0.361084
0743  // [259] = 0.226929
039E  // [260] = 0.113037
0C3C  // [261] = 0.382324
0AE3  // [262] = 0.340210
FE7A  // [263] = -0.047607
029D  // [264] = 0.081665
1838  // [265] = 0.756836
06E3  // [266] = 0.215210
115C  // [267] = 0.542480
E993  // [268] = -0.700806
142C  // [269] = 0.630371
01E0  // [270] = 0.058594
0B94  // [271] = 0.361816
12AD  // [272] = 0.583618
175C  // [273] = 0.729980
F5EF  // [274] = -0.314575
01A7  // [275] = 0.051636
F86D  // [276] = -0.236694
0D3C  // [277] = 0.413574
0F8A  // [278] = 0.485596
F2B6  // [279] = -0.415283
F6EF  // [280] = -0.283325
1089  // [281] = 0.516724
E86A  // [282] = -0.737061
03A5  // [283] = 0.113892
F6E8  // [284] = -0.284180
F7CE  // [285] = -0.256104
01EA  // [286] = 0.059814
F9E8  // [287] = -0.190430
ECB3  // [288] = -0.603149
EEC0  // [289] = -0.539062
F1F0  // [290] = -0.439453
FC92  // [291] = -0.107178
FAA2  // [292] = -0.167725
E76A  // [293] = -0.768311
EB2B  // [294] = -0.651001
FC21  // [295] = -0.120972
F880  // [296] = -0.234375
EA26  // [297] = -0.682861
FDE1  // [298] = -0.066284
E76C  // [299] = -0.768066
1437  // [300] = 0.631714
E483  // [301] = -0.859009
0971  // [302] = 0.295044
EFDB  // [303] = -0.504517
E52D  // [304] = -0.838257
DDC5  // [305] = -1.069702
098C  // [306] = 0.298340
034C  // [307] = 0.103027
0F02  // [308] = 0.468994
EB52  // [309] = -0.646240
F03E  // [310] = -0.492432
0B50  // [311] = 0.353516
11D0  // [312] = 0.556641
E945  // [313] = -0.710327
149C  // [314] = 0.644043
F5FD  // [315] = -0.312866
0AA9  // [316] = 0.333130
0FDA  // [317] = 0.495361
F9C1  // [318] = -0.195190
0677  // [319] = 0.202026
EBD8  // [320] = -0.629883
EE7D  // [321] = -0.547241
F5DD  // [322] = -0.316772
FE76  // [323] = -0.048096
FA62  // [324] = -0.175537
E9F9  // [325] = -0.688354
EBCB  // [326] = -0.631470
F981  // [327] = -0.203003
FBAE  // [328] = -0.135010
EA79  // [329] = -0.672729
FB1B  // [330] = -0.152954
E6BC  // [331] = -0.789551
14AF  // [332] = 0.646362
E760  // [333] = -0.769531
0B51  // [334] = 0.353638
F4E9  // [335] = -0.346558
E6FF  // [336] = -0.781372
DE61  // [337] = -1.050659
10DC  // [338] = 0.526855
0320  // [339] = 0.097656
0B61  // [340] = 0.355591
EE54  // [341] = -0.552246
EC00  // [342] = -0.625000
0649  // [343] = 0.196411
1051  // [344] = 0.509888
EE63  // [345] = -0.550415
136D  // [346] = 0.607056
F2C4  // [347] = -0.413574
0E7A  // [348] = 0.452393
1059  // [349] = 0.510864
F59B  // [350] = -0.324829
0315  // [351] = 0.096313
13E1  // [352] = 0.621216
1A8D  // [353] = 0.829712
0EFA  // [354] = 0.468018
045F  // [355] = 0.136597
005A  // [356] = 0.010986
0E54  // [357] = 0.447754
1226  // [358] = 0.567139
FF35  // [359] = -0.024780
009E  // [360] = 0.019287
1673  // [361] = 0.701538
01A1  // [362] = 0.050903
15BE  // [363] = 0.679443
E9D4  // [364] = -0.692871
1D07  // [365] = 0.907104
0476  // [366] = 0.139404
07EB  // [367] = 0.247437
13B6  // [368] = 0.615967
1DE8  // [369] = 0.934570
FBA7  // [370] = -0.135864
0430  // [371] = 0.130859
F5DE  // [372] = -0.316650
1373  // [373] = 0.607788
165F  // [374] = 0.699097
F0F8  // [375] = -0.469727
F8FC  // [376] = -0.219238
13BE  // [377] = 0.616943
E401  // [378] = -0.874878
0724  // [379] = 0.223145
0116  // [380] = 0.033936
F71C  // [381] = -0.277832
071D  // [382] = 0.222290
F166  // [383] = -0.456299
EEA4  // [384] = -0.542480
E6DA  // [385] = -0.785889
EF82  // [386] = -0.515381
F38D  // [387] = -0.389038
FDB6  // [388] = -0.071533
F1DB  // [389] = -0.442017
F400  // [390] = -0.375000
03CC  // [391] = 0.118652
FAF6  // [392] = -0.157471
EAED  // [393] = -0.658569
F8D5  // [394] = -0.223999
EF65  // [395] = -0.518921
16FF  // [396] = 0.718628
E518  // [397] = -0.840820
F4D3  // [398] = -0.349243
F62D  // [399] = -0.307007
F05B  // [400] = -0.488892
E48E  // [401] = -0.857666
050E  // [402] = 0.157959
F6AA  // [403] = -0.291748
07EE  // [404] = 0.247803
F38E  // [405] = -0.388916
EEB2  // [406] = -0.540771
0BBD  // [407] = 0.366821
0589  // [408] = 0.172974
ED02  // [409] = -0.593506
1BE0  // [410] = 0.871094
FC97  // [411] = -0.106567
014C  // [412] = 0.040527
0441  // [413] = 0.132935
F8FB  // [414] = -0.219360
089E  // [415] = 0.269287
E977  // [416] = -0.704224
F332  // [417] = -0.400146
F56E  // [418] = -0.330322
FFB0  // [419] = -0.009766
F8AB  // [420] = -0.229126
E6FA  // [421] = -0.781982
E37A  // [422] = -0.891357
F434  // [423] = -0.368652
F523  // [424] = -0.339478
F340  // [425] = -0.398438
039E  // [426] = 0.113037
DE64  // [427] = -1.050293
0AF2  // [428] = 0.342041
EC1A  // [429] = -0.621826
0C8C  // [430] = 0.392090
EEBB  // [431] = -0.539673
E0E0  // [432] = -0.972656
D94B  // [433] = -1.209595
0C51  // [434] = 0.384888
02F5  // [435] = 0.092407
03F7  // [436] = 0.123901
EBF0  // [437] = -0.626953
EDD8  // [438] = -0.567383
0013  // [439] = 0.002319
0E2D  // [440] = 0.442993
F2BF  // [441] = -0.414185
0C95  // [442] = 0.393188
EC61  // [443] = -0.613159
0E5A  // [444] = 0.448486
0F8C  // [445] = 0.485840
F831  // [446] = -0.244019
FC89  // [447] = -0.108276
0597  // [448] = 0.174683
0E2D  // [449] = 0.442993
024B  // [450] = 0.071655
FFB7  // [451] = -0.008911
098A  // [452] = 0.298096
0866  // [453] = 0.262451
0B3A  // [454] = 0.350830
09AA  // [455] = 0.302002
0591  // [456] = 0.173950
0BA4  // [457] = 0.363770
FE26  // [458] = -0.057861
0F09  // [459] = 0.469849
F561  // [460] = -0.331909
0D2D  // [461] = 0.411743
F507  // [462] = -0.342896
0CE0  // [463] = 0.402344
09D9  // [464] = 0.307739
11A3  // [465] = 0.551147
F223  // [466] = -0.433228
FCCF  // [467] = -0.099731
F799  // [468] = -0.262573
0898  // [469] = 0.268555
0D18  // [470] = 0.409180
FE7F  // [471] = -0.046997
F3A6  // [472] = -0.385986
07C0  // [473] = 0.242188
F94C  // [474] = -0.209473
1178  // [475] = 0.545898
F649  // [476] = -0.303589
EF34  // [477] = -0.524902
0640  // [478] = 0.195312
02A1  // [479] = 0.082153
E942  // [480] = -0.710693
F3C0  // [481] = -0.382812
F539  // [482] = -0.336792
FF1A  // [483] = -0.028076
F8A6  // [484] = -0.229736
E4E3  // [485] = -0.847290
E891  // [486] = -0.732300
F580  // [487] = -0.328125
F828  // [488] = -0.245117
F32A  // [489] = -0.401123
02C0  // [490] = 0.085938
E13C  // [491] = -0.961426
0B73  // [492] = 0.357788
EE12  // [493] = -0.560303
0CB8  // [494] = 0.397461
EED3  // [495] = -0.536743
E112  // [496] = -0.966553
DDDE  // [497] = -1.066650
0A58  // [498] = 0.323242
034C  // [499] = 0.103027
FF10  // [500] = -0.029297
E689  // [501] = -0.795776
ECE1  // [502] = -0.597534
FD2F  // [503] = -0.088013
0B9D  // [504] = 0.362915
EE8D  // [505] = -0.545288
06C4  // [506] = 0.211426
EFA5  // [507] = -0.511108
0BC3  // [508] = 0.367554
0BC0  // [509] = 0.367188
F931  // [510] = -0.212769
FC23  // [511] = -0.120728
