// Parameter: fc1.bias
// Shape: [64]
// Format: QS2_13 (16-bit signed, 2 integer bits, 13 fractional bits)
// Range: [-4.000000, 3.999878], Resolution: 7.999878
// Total values: 64
//
FF47  // [0] = -0.022583
14B9  // [1] = 0.647583
FB3E  // [2] = -0.148682
F8FB  // [3] = -0.219360
F7A4  // [4] = -0.261230
FA1F  // [5] = -0.183716
FBFF  // [6] = -0.125122
1317  // [7] = 0.596558
FFF7  // [8] = -0.001099
F406  // [9] = -0.374268
04FD  // [10] = 0.155884
F3A5  // [11] = -0.386108
1722  // [12] = 0.722900
F472  // [13] = -0.361084
F9D8  // [14] = -0.192383
FE39  // [15] = -0.055542
11A0  // [16] = 0.550781
10AB  // [17] = 0.520874
F915  // [18] = -0.216187
F4BB  // [19] = -0.352173
05AD  // [20] = 0.177368
F762  // [21] = -0.269287
19B1  // [22] = 0.802856
F63C  // [23] = -0.305176
F6C7  // [24] = -0.288208
1481  // [25] = 0.640747
14D1  // [26] = 0.650513
1452  // [27] = 0.635010
07C9  // [28] = 0.243286
FCA0  // [29] = -0.105469
1658  // [30] = 0.698242
120F  // [31] = 0.564331
FD19  // [32] = -0.090698
FDB6  // [33] = -0.071533
FD08  // [34] = -0.092773
13B3  // [35] = 0.615601
F369  // [36] = -0.393433
FBAC  // [37] = -0.135254
FC7B  // [38] = -0.109985
FB87  // [39] = -0.139771
FBF4  // [40] = -0.126465
056F  // [41] = 0.169800
F843  // [42] = -0.241821
FA50  // [43] = -0.177734
0792  // [44] = 0.236572
17BF  // [45] = 0.742065
FD59  // [46] = -0.082886
FC00  // [47] = -0.125000
219D  // [48] = 1.050415
F7C9  // [49] = -0.256714
1400  // [50] = 0.625000
F2EC  // [51] = -0.408691
242D  // [52] = 1.130493
13C6  // [53] = 0.617920
FD3F  // [54] = -0.086060
FD54  // [55] = -0.083496
017B  // [56] = 0.046265
0FDA  // [57] = 0.495361
07A0  // [58] = 0.238281
0E2B  // [59] = 0.442749
1391  // [60] = 0.611450
0EF0  // [61] = 0.466797
F676  // [62] = -0.298096
FBAE  // [63] = -0.135010
