// Parameter: fc1.bias
// Shape: [64]
// Format: QS2_13 (16-bit signed, 2 integer bits, 13 fractional bits)
// Range: [-4.000000, 3.999878], Resolution: 7.999878
// Total values: 64
//
FF60  // [0] = -0.019531
08DE  // [1] = 0.277100
F96B  // [2] = -0.205688
F918  // [3] = -0.215820
0A8A  // [4] = 0.329346
0428  // [5] = 0.129883
F156  // [6] = -0.458252
FF0D  // [7] = -0.029663
1491  // [8] = 0.642700
1803  // [9] = 0.750366
0DB6  // [10] = 0.428467
F8C7  // [11] = -0.225708
0E9E  // [12] = 0.456787
0F4F  // [13] = 0.478394
F473  // [14] = -0.360962
F470  // [15] = -0.361328
F7E7  // [16] = -0.253052
0D8D  // [17] = 0.423462
00D4  // [18] = 0.025879
EDE4  // [19] = -0.565918
09CF  // [20] = 0.306519
0383  // [21] = 0.109741
FB91  // [22] = -0.138550
F2FF  // [23] = -0.406372
F3D3  // [24] = -0.380493
026A  // [25] = 0.075439
10FC  // [26] = 0.530762
F567  // [27] = -0.331177
1005  // [28] = 0.500610
0CDE  // [29] = 0.402100
F866  // [30] = -0.237549
F456  // [31] = -0.364502
0D0D  // [32] = 0.407837
0591  // [33] = 0.173950
0B30  // [34] = 0.349609
10F2  // [35] = 0.529541
FA68  // [36] = -0.174805
F5BC  // [37] = -0.320801
F932  // [38] = -0.212646
0D69  // [39] = 0.419067
05B9  // [40] = 0.178833
F591  // [41] = -0.326050
FEB1  // [42] = -0.040894
FA09  // [43] = -0.186401
1070  // [44] = 0.513672
07FF  // [45] = 0.249878
FAAF  // [46] = -0.166138
F35C  // [47] = -0.395020
1D5D  // [48] = 0.917603
F976  // [49] = -0.204346
0F5D  // [50] = 0.480103
FD78  // [51] = -0.079102
134D  // [52] = 0.603149
0A07  // [53] = 0.313354
F2CF  // [54] = -0.412231
1A4D  // [55] = 0.821899
14A4  // [56] = 0.645020
11BE  // [57] = 0.554443
0F8C  // [58] = 0.485840
0D88  // [59] = 0.422852
F922  // [60] = -0.214600
0369  // [61] = 0.106567
F171  // [62] = -0.454956
04CF  // [63] = 0.150269
