// Parameter: fc1.weight
// Shape: [64, 4]
// Format: QS2_13 (16-bit signed, 2 integer bits, 13 fractional bits)
// Range: [-4.000000, 3.999878], Resolution: 7.999878
// Total values: 256
//
001C  // [0] = 0.003418
0512  // [1] = 0.158447
127F  // [2] = 0.578003
018B  // [3] = 0.048218
06DE  // [4] = 0.214600
034C  // [5] = 0.103027
07CC  // [6] = 0.243652
FCEB  // [7] = -0.096313
EC29  // [8] = -0.619995
F97D  // [9] = -0.203491
09A2  // [10] = 0.301025
FBD3  // [11] = -0.130493
0822  // [12] = 0.254150
F9C2  // [13] = -0.195068
0C3F  // [14] = 0.382690
F969  // [15] = -0.205933
05D1  // [16] = 0.181763
FA88  // [17] = -0.170898
D0BF  // [18] = -1.476685
F6FB  // [19] = -0.281860
109D  // [20] = 0.519165
01E7  // [21] = 0.059448
E68D  // [22] = -0.795288
F36B  // [23] = -0.393188
E739  // [24] = -0.774292
F769  // [25] = -0.268433
0F32  // [26] = 0.474854
FD2F  // [27] = -0.088013
0175  // [28] = 0.045532
FAC0  // [29] = -0.164062
01CE  // [30] = 0.056396
010E  // [31] = 0.032959
F815  // [32] = -0.247437
0EA7  // [33] = 0.457886
0705  // [34] = 0.219360
04A8  // [35] = 0.145508
FE61  // [36] = -0.050659
F5C6  // [37] = -0.319580
026C  // [38] = 0.075684
FF06  // [39] = -0.030518
1577  // [40] = 0.670776
0D57  // [41] = 0.416870
0647  // [42] = 0.196167
085A  // [43] = 0.260986
F62B  // [44] = -0.307251
FD94  // [45] = -0.075684
01C3  // [46] = 0.055054
03B5  // [47] = 0.115845
FE0A  // [48] = -0.061279
FF0B  // [49] = -0.029907
FFD0  // [50] = -0.005859
0093  // [51] = 0.017944
0427  // [52] = 0.129761
FF2B  // [53] = -0.026001
0089  // [54] = 0.016724
F936  // [55] = -0.212158
FBBF  // [56] = -0.132935
0630  // [57] = 0.193359
24D5  // [58] = 1.151001
083C  // [59] = 0.257324
F3E1  // [60] = -0.378784
FC49  // [61] = -0.116089
05FF  // [62] = 0.187378
FE21  // [63] = -0.058472
00B8  // [64] = 0.022461
039E  // [65] = 0.113037
FBB3  // [66] = -0.134399
0A42  // [67] = 0.320557
13DC  // [68] = 0.620605
180F  // [69] = 0.751831
2343  // [70] = 1.101929
1194  // [71] = 0.549316
01E1  // [72] = 0.058716
F196  // [73] = -0.450439
EEA9  // [74] = -0.541870
FF98  // [75] = -0.012695
0D79  // [76] = 0.421021
0524  // [77] = 0.160645
F27A  // [78] = -0.422607
FFEF  // [79] = -0.002075
239A  // [80] = 1.112549
1ACA  // [81] = 0.837158
17E6  // [82] = 0.746826
121F  // [83] = 0.566284
E5F4  // [84] = -0.813965
0B89  // [85] = 0.360474
220C  // [86] = 1.063965
0AC5  // [87] = 0.336548
0281  // [88] = 0.078247
01D1  // [89] = 0.056763
FC62  // [90] = -0.113037
04CD  // [91] = 0.150024
04B5  // [92] = 0.147095
FE97  // [93] = -0.044067
07A9  // [94] = 0.239380
0579  // [95] = 0.171021
EE16  // [96] = -0.559814
0591  // [97] = 0.173950
065E  // [98] = 0.198975
06DF  // [99] = 0.214722
0047  // [100] = 0.008667
01CF  // [101] = 0.056519
FF73  // [102] = -0.017212
061B  // [103] = 0.190796
FBC4  // [104] = -0.132324
00F8  // [105] = 0.030273
05AA  // [106] = 0.177002
FD2B  // [107] = -0.088501
FCA8  // [108] = -0.104492
06D4  // [109] = 0.213379
044D  // [110] = 0.134399
0547  // [111] = 0.164917
F011  // [112] = -0.497925
F40D  // [113] = -0.373413
F6CE  // [114] = -0.287354
FD1F  // [115] = -0.089966
FF5E  // [116] = -0.019775
0CCD  // [117] = 0.400024
064F  // [118] = 0.197144
FF18  // [119] = -0.028320
07B4  // [120] = 0.240723
038A  // [121] = 0.110596
0582  // [122] = 0.172119
FD27  // [123] = -0.088989
F8FB  // [124] = -0.219360
F8F4  // [125] = -0.220215
F35D  // [126] = -0.394897
FA9B  // [127] = -0.168579
0102  // [128] = 0.031494
F33A  // [129] = -0.399170
064A  // [130] = 0.196533
0B3C  // [131] = 0.351074
E98B  // [132] = -0.701782
F648  // [133] = -0.303711
F2DA  // [134] = -0.410889
FA94  // [135] = -0.169434
F725  // [136] = -0.276733
0729  // [137] = 0.223755
0305  // [138] = 0.094360
0162  // [139] = 0.043213
FE04  // [140] = -0.062012
F28A  // [141] = -0.420654
F12B  // [142] = -0.463501
F60D  // [143] = -0.310913
1823  // [144] = 0.754272
0967  // [145] = 0.293823
E8CE  // [146] = -0.724854
0292  // [147] = 0.080322
06AB  // [148] = 0.208374
0352  // [149] = 0.103760
1E9A  // [150] = 0.956299
070A  // [151] = 0.219971
E295  // [152] = -0.919312
F496  // [153] = -0.356689
0A16  // [154] = 0.315186
FA5D  // [155] = -0.176147
E533  // [156] = -0.837524
FDF2  // [157] = -0.064209
0E98  // [158] = 0.456055
0162  // [159] = 0.043213
FF06  // [160] = -0.030518
03C9  // [161] = 0.118286
23A4  // [162] = 1.113770
0698  // [163] = 0.206055
FD92  // [164] = -0.075928
F942  // [165] = -0.210693
0DCC  // [166] = 0.431152
0C01  // [167] = 0.375122
FF9E  // [168] = -0.011963
FC4D  // [169] = -0.115601
E6B2  // [170] = -0.790771
FC0B  // [171] = -0.123657
0A2C  // [172] = 0.317871
FA7E  // [173] = -0.172119
D19E  // [174] = -1.449463
F6F2  // [175] = -0.282959
F949  // [176] = -0.209839
0072  // [177] = 0.013916
1928  // [178] = 0.786133
F956  // [179] = -0.208252
F211  // [180] = -0.435425
033A  // [181] = 0.100830
065A  // [182] = 0.198486
FC4C  // [183] = -0.115723
FADB  // [184] = -0.160767
04E1  // [185] = 0.152466
FCCE  // [186] = -0.099854
061A  // [187] = 0.190674
12A0  // [188] = 0.582031
0479  // [189] = 0.139771
11BB  // [190] = 0.554077
000D  // [191] = 0.001587
F650  // [192] = -0.302734
F074  // [193] = -0.485840
EBFB  // [194] = -0.625610
F47E  // [195] = -0.359619
025C  // [196] = 0.073730
FB0C  // [197] = -0.154785
D22E  // [198] = -1.431885
F53F  // [199] = -0.336060
0118  // [200] = 0.034180
0449  // [201] = 0.133911
0623  // [202] = 0.191772
0399  // [203] = 0.112427
F8EB  // [204] = -0.221313
FCA5  // [205] = -0.104858
FCCF  // [206] = -0.099731
FE39  // [207] = -0.055542
F240  // [208] = -0.429688
EE02  // [209] = -0.562256
E7D2  // [210] = -0.755615
F266  // [211] = -0.425049
F8B1  // [212] = -0.228394
F402  // [213] = -0.374756
EDFA  // [214] = -0.563232
F6E4  // [215] = -0.284668
E359  // [216] = -0.895386
FFA0  // [217] = -0.011719
09D7  // [218] = 0.307495
02E3  // [219] = 0.090210
E415  // [220] = -0.872437
EFE4  // [221] = -0.503418
FA86  // [222] = -0.171143
F576  // [223] = -0.329346
0A73  // [224] = 0.326538
04CD  // [225] = 0.150024
1C67  // [226] = 0.887573
05F9  // [227] = 0.186646
F3C7  // [228] = -0.381958
E9FD  // [229] = -0.687866
E3C2  // [230] = -0.882568
EFA7  // [231] = -0.510864
FFE6  // [232] = -0.003174
0B69  // [233] = 0.356567
014F  // [234] = 0.040894
F1CA  // [235] = -0.444092
033D  // [236] = 0.101196
FCFE  // [237] = -0.093994
FC6D  // [238] = -0.111694
FD5C  // [239] = -0.082520
FE3B  // [240] = -0.055298
04CF  // [241] = 0.150269
0436  // [242] = 0.131592
03CC  // [243] = 0.118652
E680  // [244] = -0.796875
F353  // [245] = -0.396118
DB24  // [246] = -1.151855
F5BB  // [247] = -0.320923
F853  // [248] = -0.239868
05D0  // [249] = 0.181641
1337  // [250] = 0.600464
0AE5  // [251] = 0.340454
FEEF  // [252] = -0.033325
FCA1  // [253] = -0.105347
DA7C  // [254] = -1.172363
F76E  // [255] = -0.267822
