// Parameter: fc1.weight
// Shape: [64, 4]
// Format: QS2_13 (16-bit signed, 2 integer bits, 13 fractional bits)
// Range: [-4.000000, 3.999878], Resolution: 7.999878
// Total values: 256
//
0496  // [0] = 0.143311
0045  // [1] = 0.008423
1322  // [2] = 0.597900
F456  // [3] = -0.364502
FD33  // [4] = -0.087524
0A06  // [5] = 0.313232
06E8  // [6] = 0.215820
005F  // [7] = 0.011597
0955  // [8] = 0.291626
FE28  // [9] = -0.057617
DA1C  // [10] = -1.184082
FB11  // [11] = -0.154175
F5C1  // [12] = -0.320190
F812  // [13] = -0.247803
FA4C  // [14] = -0.178223
F7C6  // [15] = -0.257080
F212  // [16] = -0.435303
F455  // [17] = -0.364624
0578  // [18] = 0.170898
FBFB  // [19] = -0.125610
1889  // [20] = 0.766724
12A3  // [21] = 0.582397
1E41  // [22] = 0.945435
0D42  // [23] = 0.414307
03C6  // [24] = 0.117920
0318  // [25] = 0.096680
E4CB  // [26] = -0.850220
F3B8  // [27] = -0.383789
0630  // [28] = 0.193359
0A2A  // [29] = 0.317627
06B1  // [30] = 0.209106
06E7  // [31] = 0.215698
FD53  // [32] = -0.083618
FC8D  // [33] = -0.107788
ECBD  // [34] = -0.601929
F306  // [35] = -0.405518
FFD5  // [36] = -0.005249
F9C2  // [37] = -0.195068
FAF0  // [38] = -0.158203
FBBD  // [39] = -0.133179
237E  // [40] = 1.109131
12AD  // [41] = 0.583618
1332  // [42] = 0.599854
0BC5  // [43] = 0.367798
FC0F  // [44] = -0.123169
FA0F  // [45] = -0.185669
E712  // [46] = -0.779053
F7FE  // [47] = -0.250244
FC64  // [48] = -0.112793
0D14  // [49] = 0.408691
08BA  // [50] = 0.272705
0963  // [51] = 0.293335
06C5  // [52] = 0.211548
FD42  // [53] = -0.085693
00F6  // [54] = 0.030029
0450  // [55] = 0.134766
037E  // [56] = 0.109131
F287  // [57] = -0.421021
E953  // [58] = -0.708618
F3A7  // [59] = -0.385864
12D8  // [60] = 0.588867
08B3  // [61] = 0.271851
E5F7  // [62] = -0.813599
F355  // [63] = -0.395874
0DB6  // [64] = 0.428467
FB5B  // [65] = -0.145142
D876  // [66] = -1.235596
F88C  // [67] = -0.232910
F775  // [68] = -0.266968
04D8  // [69] = 0.151367
0EA5  // [70] = 0.457642
03EB  // [71] = 0.122437
0D9D  // [72] = 0.425415
0109  // [73] = 0.032349
04DF  // [74] = 0.152222
F5A1  // [75] = -0.324097
F3C0  // [76] = -0.382812
F6EB  // [77] = -0.283813
10D5  // [78] = 0.526001
0472  // [79] = 0.138916
FD7D  // [80] = -0.078491
F090  // [81] = -0.482422
FB9D  // [82] = -0.137085
021C  // [83] = 0.065918
1F0A  // [84] = 0.969971
1262  // [85] = 0.574463
FE84  // [86] = -0.046387
09D6  // [87] = 0.307373
0837  // [88] = 0.256714
07C6  // [89] = 0.242920
29AC  // [90] = 1.302246
05CC  // [91] = 0.181152
161E  // [92] = 0.691162
FAC9  // [93] = -0.162964
DB8C  // [94] = -1.139160
F9C2  // [95] = -0.195068
03F9  // [96] = 0.124146
F69A  // [97] = -0.293701
E395  // [98] = -0.888062
F2B4  // [99] = -0.415527
F13E  // [100] = -0.461182
F0B1  // [101] = -0.478394
073C  // [102] = 0.226074
0AD5  // [103] = 0.338501
FA92  // [104] = -0.169678
F8E5  // [105] = -0.222046
F705  // [106] = -0.280640
FAC6  // [107] = -0.163330
F742  // [108] = -0.273193
FE77  // [109] = -0.047974
027D  // [110] = 0.077759
FE63  // [111] = -0.050415
F8B7  // [112] = -0.227661
F232  // [113] = -0.431396
F397  // [114] = -0.387817
F6F7  // [115] = -0.282349
072B  // [116] = 0.223999
FEA9  // [117] = -0.041870
FCF1  // [118] = -0.095581
06D7  // [119] = 0.213745
F854  // [120] = -0.239746
0D13  // [121] = 0.408569
2732  // [122] = 1.224854
0D98  // [123] = 0.424805
F215  // [124] = -0.434937
0332  // [125] = 0.099854
1E6D  // [126] = 0.950806
03D9  // [127] = 0.120239
FB58  // [128] = -0.145508
06AB  // [129] = 0.208374
056B  // [130] = 0.169312
FC09  // [131] = -0.123901
0A70  // [132] = 0.326172
F5F5  // [133] = -0.313843
F320  // [134] = -0.402344
01C6  // [135] = 0.055420
04C8  // [136] = 0.149414
F85A  // [137] = -0.239014
FF63  // [138] = -0.019165
F79E  // [139] = -0.261963
1293  // [140] = 0.580444
0CE5  // [141] = 0.402954
13C3  // [142] = 0.617554
08BA  // [143] = 0.272705
FBFA  // [144] = -0.125732
F2EB  // [145] = -0.408813
F2C4  // [146] = -0.413574
FDBE  // [147] = -0.070557
0556  // [148] = 0.166748
049B  // [149] = 0.143921
1526  // [150] = 0.660889
0AE8  // [151] = 0.340820
0AC5  // [152] = 0.336548
FB7D  // [153] = -0.140991
FBA9  // [154] = -0.135620
07C4  // [155] = 0.242676
FE88  // [156] = -0.045898
0767  // [157] = 0.231323
0A53  // [158] = 0.322632
05A6  // [159] = 0.176514
F98E  // [160] = -0.201416
055A  // [161] = 0.167236
0A00  // [162] = 0.312500
FC35  // [163] = -0.118530
FA8B  // [164] = -0.170532
035A  // [165] = 0.104736
1379  // [166] = 0.608521
FCD9  // [167] = -0.098511
00FA  // [168] = 0.030518
08D8  // [169] = 0.276367
0F01  // [170] = 0.468872
006C  // [171] = 0.013184
06FE  // [172] = 0.218506
F81F  // [173] = -0.246216
DCB7  // [174] = -1.102661
F532  // [175] = -0.337646
02B7  // [176] = 0.084839
013F  // [177] = 0.038940
0415  // [178] = 0.127563
F9FD  // [179] = -0.187866
F80E  // [180] = -0.248291
0140  // [181] = 0.039062
F41A  // [182] = -0.371826
EF69  // [183] = -0.518433
01D1  // [184] = 0.056763
FAD6  // [185] = -0.161377
E7A2  // [186] = -0.761475
F4B2  // [187] = -0.353271
02A3  // [188] = 0.082397
0A1A  // [189] = 0.315674
F329  // [190] = -0.401245
00BF  // [191] = 0.023315
0B49  // [192] = 0.352661
F9EF  // [193] = -0.189575
F51B  // [194] = -0.340454
FB3D  // [195] = -0.148804
03DA  // [196] = 0.120361
FC54  // [197] = -0.114746
FD9A  // [198] = -0.074951
F90C  // [199] = -0.217285
09D5  // [200] = 0.307251
FBE1  // [201] = -0.128784
06AC  // [202] = 0.208496
F4F0  // [203] = -0.345703
F805  // [204] = -0.249390
FD2A  // [205] = -0.088623
FEE9  // [206] = -0.034058
008F  // [207] = 0.017456
FD5B  // [208] = -0.082642
FC7B  // [209] = -0.109985
0867  // [210] = 0.262573
07B2  // [211] = 0.240479
FA29  // [212] = -0.182495
091A  // [213] = 0.284424
0C26  // [214] = 0.379639
FCCA  // [215] = -0.100342
14D4  // [216] = 0.650879
FF84  // [217] = -0.015137
EB2B  // [218] = -0.651001
F964  // [219] = -0.206543
DE50  // [220] = -1.052734
F4B1  // [221] = -0.353394
E4E3  // [222] = -0.847290
F82D  // [223] = -0.244507
0200  // [224] = 0.062500
05E3  // [225] = 0.183960
0C30  // [226] = 0.380859
0E8F  // [227] = 0.454956
04B3  // [228] = 0.146851
FE92  // [229] = -0.044678
0126  // [230] = 0.035889
033C  // [231] = 0.101074
04E9  // [232] = 0.153442
FE9D  // [233] = -0.043335
0624  // [234] = 0.191895
0270  // [235] = 0.076172
FDB5  // [236] = -0.071655
05DE  // [237] = 0.183350
028A  // [238] = 0.079346
0466  // [239] = 0.137451
F7C6  // [240] = -0.257080
FADA  // [241] = -0.160889
F9E8  // [242] = -0.190430
FDC5  // [243] = -0.069702
07CC  // [244] = 0.243652
0D43  // [245] = 0.414429
EE1F  // [246] = -0.558716
F202  // [247] = -0.437256
FB12  // [248] = -0.154053
FF2E  // [249] = -0.025635
E82D  // [250] = -0.744507
F7E5  // [251] = -0.253296
140F  // [252] = 0.626831
F69D  // [253] = -0.293335
0C03  // [254] = 0.375366
0AB9  // [255] = 0.335083
