// Parameter: fc2.bias
// Shape: [16]
// Format: QS2_13 (16-bit signed, 2 integer bits, 13 fractional bits)
// Range: [-4.000000, 3.999878], Resolution: 7.999878
// Total values: 16
//
057D  // [0] = 0.171509
EB79  // [1] = -0.641479
F7D7  // [2] = -0.255005
0976  // [3] = 0.295654
03A5  // [4] = 0.113892
0AC7  // [5] = 0.336792
05DD  // [6] = 0.183228
F335  // [7] = -0.399780
0A97  // [8] = 0.330933
FBCF  // [9] = -0.130981
EEEE  // [10] = -0.533447
F696  // [11] = -0.294189
0541  // [12] = 0.164185
0AA9  // [13] = 0.333130
0DAE  // [14] = 0.427490
02D8  // [15] = 0.088867
