// Parameter: fc2.weight
// Shape: [16, 64]
// Format: QS2_13 (16-bit signed, 2 integer bits, 13 fractional bits)
// Range: [-4.000000, 3.999878], Resolution: 7.999878
// Total values: 1024
//
FFFE  // [0] = -0.000244
03F5  // [1] = 0.123657
E7A2  // [2] = -0.761475
F466  // [3] = -0.362549
FF85  // [4] = -0.015015
FA56  // [5] = -0.177002
F906  // [6] = -0.218018
FA1E  // [7] = -0.183838
FF3E  // [8] = -0.023682
0B24  // [9] = 0.348145
06DB  // [10] = 0.214233
F60B  // [11] = -0.311157
07DF  // [12] = 0.245972
089A  // [13] = 0.268799
F231  // [14] = -0.431519
FE7D  // [15] = -0.047241
F2A0  // [16] = -0.417969
09CF  // [17] = 0.306519
FAE2  // [18] = -0.159912
F805  // [19] = -0.249390
FF9D  // [20] = -0.012085
00B1  // [21] = 0.021606
F736  // [22] = -0.274658
E695  // [23] = -0.794312
F20E  // [24] = -0.435791
01AF  // [25] = 0.052612
0228  // [26] = 0.067383
F372  // [27] = -0.392334
06A9  // [28] = 0.208130
FFAF  // [29] = -0.009888
EDBD  // [30] = -0.570679
EC03  // [31] = -0.624634
04DD  // [32] = 0.151978
FCAE  // [33] = -0.103760
0045  // [34] = 0.008423
04EB  // [35] = 0.153687
FD3B  // [36] = -0.086548
F74B  // [37] = -0.272095
FC2F  // [38] = -0.119263
033D  // [39] = 0.101196
FDC8  // [40] = -0.069336
08D2  // [41] = 0.275635
FA9F  // [42] = -0.168091
F8B4  // [43] = -0.228027
FFFF  // [44] = -0.000122
FBCB  // [45] = -0.131470
FCDB  // [46] = -0.098267
FA9E  // [47] = -0.168213
0811  // [48] = 0.252075
FEE3  // [49] = -0.034790
0167  // [50] = 0.043823
FAA9  // [51] = -0.166870
07F3  // [52] = 0.248413
0344  // [53] = 0.102051
FF16  // [54] = -0.028564
072C  // [55] = 0.224121
073F  // [56] = 0.226440
085B  // [57] = 0.261108
06E1  // [58] = 0.214966
0A5C  // [59] = 0.323730
F56E  // [60] = -0.330322
012B  // [61] = 0.036499
F322  // [62] = -0.402100
FE0C  // [63] = -0.061035
FC73  // [64] = -0.110962
03C0  // [65] = 0.117188
1C02  // [66] = 0.875244
09B7  // [67] = 0.303589
FE94  // [68] = -0.044434
02CD  // [69] = 0.087524
FCA9  // [70] = -0.104370
056F  // [71] = 0.169800
FF0E  // [72] = -0.029541
FE3B  // [73] = -0.055298
FFFC  // [74] = -0.000488
04B3  // [75] = 0.146851
FD24  // [76] = -0.089355
FE56  // [77] = -0.052002
0F4C  // [78] = 0.478027
004A  // [79] = 0.009033
01EC  // [80] = 0.060059
FDB8  // [81] = -0.071289
048F  // [82] = 0.142456
08E8  // [83] = 0.278320
FFFD  // [84] = -0.000366
FE41  // [85] = -0.054565
13C7  // [86] = 0.618042
119B  // [87] = 0.550171
08B8  // [88] = 0.272461
FE1C  // [89] = -0.059082
FFCA  // [90] = -0.006592
0D61  // [91] = 0.418091
FE89  // [92] = -0.045776
FE1B  // [93] = -0.059204
0AB6  // [94] = 0.334717
1675  // [95] = 0.701782
0123  // [96] = 0.035522
FE11  // [97] = -0.060425
0371  // [98] = 0.107544
FC98  // [99] = -0.106445
05DC  // [100] = 0.183105
0C6A  // [101] = 0.387939
0349  // [102] = 0.102661
0202  // [103] = 0.062744
FF61  // [104] = -0.019409
F0CA  // [105] = -0.475342
0529  // [106] = 0.161255
F8D5  // [107] = -0.223999
FD47  // [108] = -0.085083
FFD2  // [109] = -0.005615
011A  // [110] = 0.034424
0910  // [111] = 0.283203
FDDF  // [112] = -0.066528
FFEA  // [113] = -0.002686
FD51  // [114] = -0.083862
043D  // [115] = 0.132446
010A  // [116] = 0.032471
FFF5  // [117] = -0.001343
081F  // [118] = 0.253784
FCB3  // [119] = -0.103149
02D1  // [120] = 0.088013
FF9B  // [121] = -0.012329
FFDA  // [122] = -0.004639
FF81  // [123] = -0.015503
0968  // [124] = 0.293945
FF6C  // [125] = -0.018066
1981  // [126] = 0.796997
0744  // [127] = 0.227051
01DB  // [128] = 0.057983
FA93  // [129] = -0.169556
050A  // [130] = 0.157471
FF5B  // [131] = -0.020142
0350  // [132] = 0.103516
0355  // [133] = 0.104126
FB8E  // [134] = -0.138916
F802  // [135] = -0.249756
0313  // [136] = 0.096069
0383  // [137] = 0.109741
03E4  // [138] = 0.121582
FBB7  // [139] = -0.133911
016F  // [140] = 0.044800
04E2  // [141] = 0.152588
023D  // [142] = 0.069946
F9A9  // [143] = -0.198120
EF51  // [144] = -0.521362
FF12  // [145] = -0.029053
00A0  // [146] = 0.019531
020C  // [147] = 0.063965
F971  // [148] = -0.204956
0211  // [149] = 0.064575
FF8F  // [150] = -0.013794
012A  // [151] = 0.036377
F68B  // [152] = -0.295532
0107  // [153] = 0.032104
03FD  // [154] = 0.124634
FF46  // [155] = -0.022705
FF2D  // [156] = -0.025757
01EC  // [157] = 0.060059
F8A6  // [158] = -0.229736
FA0D  // [159] = -0.185913
FD82  // [160] = -0.077881
F9B4  // [161] = -0.196777
00B9  // [162] = 0.022583
03BE  // [163] = 0.116943
FF4F  // [164] = -0.021606
0C22  // [165] = 0.379150
0100  // [166] = 0.031250
FD29  // [167] = -0.088745
0054  // [168] = 0.010254
F08A  // [169] = -0.483154
04C6  // [170] = 0.149170
EE49  // [171] = -0.553589
FC45  // [172] = -0.116577
FB5A  // [173] = -0.145264
F86B  // [174] = -0.236938
F1A6  // [175] = -0.448486
0474  // [176] = 0.139160
FF43  // [177] = -0.023071
034A  // [178] = 0.102783
FE9A  // [179] = -0.043701
02BC  // [180] = 0.085449
FFC6  // [181] = -0.007080
04EC  // [182] = 0.153809
058F  // [183] = 0.173706
0270  // [184] = 0.076172
0090  // [185] = 0.017578
0409  // [186] = 0.126099
06E2  // [187] = 0.215088
FF20  // [188] = -0.027344
FCF0  // [189] = -0.095703
1508  // [190] = 0.657227
FE14  // [191] = -0.060059
FDA3  // [192] = -0.073853
013C  // [193] = 0.038574
1127  // [194] = 0.536011
06B2  // [195] = 0.209229
004C  // [196] = 0.009277
04E5  // [197] = 0.152954
0C56  // [198] = 0.385498
069E  // [199] = 0.206787
F95D  // [200] = -0.207397
FA23  // [201] = -0.183228
FB47  // [202] = -0.147583
0958  // [203] = 0.291992
FC81  // [204] = -0.109253
FD69  // [205] = -0.080933
08A9  // [206] = 0.270630
00C4  // [207] = 0.023926
1A17  // [208] = 0.815308
FDAD  // [209] = -0.072632
03F2  // [210] = 0.123291
04E0  // [211] = 0.152344
FFB6  // [212] = -0.009033
FB10  // [213] = -0.154297
07D7  // [214] = 0.244995
141F  // [215] = 0.628784
171F  // [216] = 0.722534
0344  // [217] = 0.102051
FA72  // [218] = -0.173584
09E7  // [219] = 0.309448
FE63  // [220] = -0.050415
FA32  // [221] = -0.181396
0D88  // [222] = 0.422852
1396  // [223] = 0.612061
FB81  // [224] = -0.140503
FF7B  // [225] = -0.016235
FDBF  // [226] = -0.070435
FCAF  // [227] = -0.103638
03F5  // [228] = 0.123657
FA7B  // [229] = -0.172485
009C  // [230] = 0.019043
F9D6  // [231] = -0.192627
FB2E  // [232] = -0.150635
0744  // [233] = 0.227051
FCBC  // [234] = -0.102051
180B  // [235] = 0.751343
FDF4  // [236] = -0.063965
00AB  // [237] = 0.020874
0750  // [238] = 0.228516
0D47  // [239] = 0.414917
F984  // [240] = -0.202637
FEF1  // [241] = -0.033081
FF42  // [242] = -0.023193
012E  // [243] = 0.036865
FA5E  // [244] = -0.176025
FC6B  // [245] = -0.111938
03C1  // [246] = 0.117310
FC9C  // [247] = -0.105957
FA7C  // [248] = -0.172363
F901  // [249] = -0.218628
F9D8  // [250] = -0.192383
FAA5  // [251] = -0.167358
02C0  // [252] = 0.085938
FE77  // [253] = -0.047974
F69E  // [254] = -0.293213
0387  // [255] = 0.110229
FAAB  // [256] = -0.166626
FEB6  // [257] = -0.040283
1812  // [258] = 0.752197
051A  // [259] = 0.159424
01E3  // [260] = 0.058960
0226  // [261] = 0.067139
FE08  // [262] = -0.061523
00AF  // [263] = 0.021362
F9C5  // [264] = -0.194702
F69A  // [265] = -0.293701
FC5C  // [266] = -0.113770
0506  // [267] = 0.156982
FA44  // [268] = -0.179199
FE0A  // [269] = -0.061279
0E5B  // [270] = 0.448608
0102  // [271] = 0.031494
FA93  // [272] = -0.169556
FC6F  // [273] = -0.111450
FF71  // [274] = -0.017456
0A80  // [275] = 0.328125
FF8A  // [276] = -0.014404
FD4A  // [277] = -0.084717
0D58  // [278] = 0.416992
14CD  // [279] = 0.650024
0422  // [280] = 0.129150
0470  // [281] = 0.138672
FBA8  // [282] = -0.135742
0A91  // [283] = 0.330200
FD2A  // [284] = -0.088623
FD22  // [285] = -0.089600
062F  // [286] = 0.193237
133E  // [287] = 0.601318
FD57  // [288] = -0.083130
0043  // [289] = 0.008179
FC7D  // [290] = -0.109741
FB1A  // [291] = -0.153076
03CB  // [292] = 0.118530
0E00  // [293] = 0.437500
07E0  // [294] = 0.246094
F9F0  // [295] = -0.189453
01C0  // [296] = 0.054688
EF36  // [297] = -0.524658
04DB  // [298] = 0.151733
F808  // [299] = -0.249023
FEEB  // [300] = -0.033813
FEAE  // [301] = -0.041260
FA89  // [302] = -0.170776
05E5  // [303] = 0.184204
F65F  // [304] = -0.300903
0195  // [305] = 0.049438
002A  // [306] = 0.005127
079A  // [307] = 0.237549
0054  // [308] = 0.010254
FE56  // [309] = -0.052002
040B  // [310] = 0.126343
F83D  // [311] = -0.242554
FCF4  // [312] = -0.095215
F71C  // [313] = -0.277832
F6E2  // [314] = -0.284912
F9D4  // [315] = -0.192871
0ACC  // [316] = 0.337402
FD7E  // [317] = -0.078369
1A04  // [318] = 0.812988
0537  // [319] = 0.162964
00F0  // [320] = 0.029297
00EB  // [321] = 0.028687
EBB9  // [322] = -0.633667
F697  // [323] = -0.294067
FFB9  // [324] = -0.008667
FF60  // [325] = -0.019531
FA7B  // [326] = -0.172485
FA95  // [327] = -0.169312
026F  // [328] = 0.076050
02CB  // [329] = 0.087280
0417  // [330] = 0.127808
FD9B  // [331] = -0.074829
074D  // [332] = 0.228149
011F  // [333] = 0.035034
F142  // [334] = -0.460693
019A  // [335] = 0.050049
F4FC  // [336] = -0.344238
019D  // [337] = 0.050415
FC1D  // [338] = -0.121460
F46F  // [339] = -0.361450
02D6  // [340] = 0.088623
FEBE  // [341] = -0.039307
F1C9  // [342] = -0.444214
ED12  // [343] = -0.591553
F105  // [344] = -0.468140
FEB5  // [345] = -0.040405
009F  // [346] = 0.019409
F3AE  // [347] = -0.385010
04CF  // [348] = 0.150269
0117  // [349] = 0.034058
F24A  // [350] = -0.428467
F14E  // [351] = -0.459229
048F  // [352] = 0.142456
0035  // [353] = 0.006470
01FA  // [354] = 0.061768
01C4  // [355] = 0.055176
FEAE  // [356] = -0.041260
FC60  // [357] = -0.113281
FA69  // [358] = -0.174683
02CA  // [359] = 0.087158
009F  // [360] = 0.019409
04A7  // [361] = 0.145386
FFC9  // [362] = -0.006714
F11E  // [363] = -0.465088
FF68  // [364] = -0.018555
FD98  // [365] = -0.075195
FD67  // [366] = -0.081177
F639  // [367] = -0.305542
058D  // [368] = 0.173462
02B2  // [369] = 0.084229
000A  // [370] = 0.001221
F75F  // [371] = -0.269653
0110  // [372] = 0.033203
0279  // [373] = 0.077271
F852  // [374] = -0.239990
037C  // [375] = 0.108887
0290  // [376] = 0.080078
05A7  // [377] = 0.176636
0823  // [378] = 0.254272
094A  // [379] = 0.290283
F619  // [380] = -0.309448
014F  // [381] = 0.040894
0189  // [382] = 0.047974
FC8A  // [383] = -0.108154
FEEF  // [384] = -0.033325
F9C2  // [385] = -0.195068
1DD6  // [386] = 0.932373
07DE  // [387] = 0.245850
FF3B  // [388] = -0.024048
0319  // [389] = 0.096802
019C  // [390] = 0.050293
04E4  // [391] = 0.152832
F8FB  // [392] = -0.219360
F6F9  // [393] = -0.282104
FDB4  // [394] = -0.071777
06AF  // [395] = 0.208862
FA93  // [396] = -0.169556
F826  // [397] = -0.245361
11A2  // [398] = 0.551025
FC34  // [399] = -0.118652
033E  // [400] = 0.101318
FC3F  // [401] = -0.117310
0261  // [402] = 0.074341
0B08  // [403] = 0.344727
FF5D  // [404] = -0.019897
01CE  // [405] = 0.056396
0FFD  // [406] = 0.499634
130E  // [407] = 0.595459
06A0  // [408] = 0.207031
0234  // [409] = 0.068848
FD25  // [410] = -0.089233
0D80  // [411] = 0.421875
FAD8  // [412] = -0.161133
FE4D  // [413] = -0.053101
0C6E  // [414] = 0.388428
17CC  // [415] = 0.743652
FEB3  // [416] = -0.040649
FA94  // [417] = -0.169434
FE87  // [418] = -0.046021
FC1E  // [419] = -0.121338
0737  // [420] = 0.225464
1162  // [421] = 0.543213
071F  // [422] = 0.222534
FBB1  // [423] = -0.134644
FDFE  // [424] = -0.062744
F2E4  // [425] = -0.409668
0639  // [426] = 0.194458
FE11  // [427] = -0.060425
F903  // [428] = -0.218384
0141  // [429] = 0.039185
FDAF  // [430] = -0.072388
06BD  // [431] = 0.210571
F51F  // [432] = -0.339966
FEFB  // [433] = -0.031860
F9B8  // [434] = -0.196289
051D  // [435] = 0.159790
FBA0  // [436] = -0.136719
FAA9  // [437] = -0.166870
078A  // [438] = 0.235596
F4A2  // [439] = -0.355225
F5C7  // [440] = -0.319458
F4A1  // [441] = -0.355347
F887  // [442] = -0.233521
F95B  // [443] = -0.207642
0C1D  // [444] = 0.378540
FDFE  // [445] = -0.062744
1667  // [446] = 0.700073
0167  // [447] = 0.043823
0149  // [448] = 0.040161
FD7B  // [449] = -0.078735
1C5F  // [450] = 0.886597
0A0F  // [451] = 0.314331
FF2D  // [452] = -0.025757
FEC2  // [453] = -0.038818
0500  // [454] = 0.156250
0673  // [455] = 0.201538
FEE6  // [456] = -0.034424
FC67  // [457] = -0.112427
FB4D  // [458] = -0.146851
0561  // [459] = 0.168091
F5FE  // [460] = -0.312744
F7CB  // [461] = -0.256470
1215  // [462] = 0.565063
0039  // [463] = 0.006958
0910  // [464] = 0.283203
FE86  // [465] = -0.046143
FE51  // [466] = -0.052612
070C  // [467] = 0.220215
FB84  // [468] = -0.140137
FD85  // [469] = -0.077515
128E  // [470] = 0.579834
14CE  // [471] = 0.650146
0C10  // [472] = 0.376953
0093  // [473] = 0.017944
FA5C  // [474] = -0.176270
1125  // [475] = 0.535767
FB6D  // [476] = -0.142944
F87C  // [477] = -0.234863
0C14  // [478] = 0.377441
1903  // [479] = 0.781616
FE20  // [480] = -0.058594
FCD1  // [481] = -0.099487
FDA7  // [482] = -0.073364
FA7D  // [483] = -0.172241
0796  // [484] = 0.237061
0A05  // [485] = 0.313110
053E  // [486] = 0.163818
F904  // [487] = -0.218262
0157  // [488] = 0.041870
F3B2  // [489] = -0.384521
0539  // [490] = 0.163208
050D  // [491] = 0.157837
FCB0  // [492] = -0.103516
FC8B  // [493] = -0.108032
00F1  // [494] = 0.029419
0BE3  // [495] = 0.371460
FA1D  // [496] = -0.183960
FE0D  // [497] = -0.060913
FAFA  // [498] = -0.156982
076B  // [499] = 0.231812
F95C  // [500] = -0.207520
FC42  // [501] = -0.116943
0D09  // [502] = 0.407349
F9A4  // [503] = -0.198730
FE33  // [504] = -0.056274
FC42  // [505] = -0.116943
FC7D  // [506] = -0.109741
FA2E  // [507] = -0.181885
089E  // [508] = 0.269287
FD38  // [509] = -0.086914
0F3D  // [510] = 0.476196
0403  // [511] = 0.125366
FF0A  // [512] = -0.030029
FCD1  // [513] = -0.099487
19FE  // [514] = 0.812256
06DC  // [515] = 0.214355
FD6B  // [516] = -0.080688
0515  // [517] = 0.158813
02E7  // [518] = 0.090698
0773  // [519] = 0.232788
FF54  // [520] = -0.020996
FBB4  // [521] = -0.134277
FD11  // [522] = -0.091675
032B  // [523] = 0.098999
F820  // [524] = -0.246094
FA6C  // [525] = -0.174316
1354  // [526] = 0.604004
01B9  // [527] = 0.053833
11CA  // [528] = 0.555908
FACE  // [529] = -0.162354
0019  // [530] = 0.003052
0696  // [531] = 0.205811
FEE7  // [532] = -0.034302
FC99  // [533] = -0.106323
0FE5  // [534] = 0.496704
1A17  // [535] = 0.815308
11D7  // [536] = 0.557495
015F  // [537] = 0.042847
FA1C  // [538] = -0.184082
0AA2  // [539] = 0.332275
FCD5  // [540] = -0.098999
FC83  // [541] = -0.109009
0C08  // [542] = 0.375977
1872  // [543] = 0.763916
FC51  // [544] = -0.115112
FDEE  // [545] = -0.064697
FF3D  // [546] = -0.023804
FEC9  // [547] = -0.037964
0491  // [548] = 0.142700
08F7  // [549] = 0.280151
06B2  // [550] = 0.209229
FF6B  // [551] = -0.018188
FFB5  // [552] = -0.009155
F87F  // [553] = -0.234497
0257  // [554] = 0.073120
0AFE  // [555] = 0.343506
FB47  // [556] = -0.147583
FF27  // [557] = -0.026489
00FC  // [558] = 0.030762
0C05  // [559] = 0.375610
FCBD  // [560] = -0.101929
0262  // [561] = 0.074463
FBAF  // [562] = -0.134888
084F  // [563] = 0.259644
FDFD  // [564] = -0.062866
00C8  // [565] = 0.024414
0C0A  // [566] = 0.376221
F996  // [567] = -0.200439
FF10  // [568] = -0.029297
F92B  // [569] = -0.213501
F713  // [570] = -0.278931
FA2D  // [571] = -0.182007
08C7  // [572] = 0.274292
FF22  // [573] = -0.027100
0CE7  // [574] = 0.403198
FEF2  // [575] = -0.032959
00BE  // [576] = 0.023193
FB10  // [577] = -0.154297
1B13  // [578] = 0.846069
0880  // [579] = 0.265625
FBB2  // [580] = -0.134521
0151  // [581] = 0.041138
04A7  // [582] = 0.145386
0543  // [583] = 0.164429
FA5C  // [584] = -0.176270
F524  // [585] = -0.339355
FBE2  // [586] = -0.128662
08F1  // [587] = 0.279419
F5EC  // [588] = -0.314941
F949  // [589] = -0.209839
1437  // [590] = 0.631714
01D7  // [591] = 0.057495
09B4  // [592] = 0.303223
F8DC  // [593] = -0.223145
0271  // [594] = 0.076294
0A49  // [595] = 0.321411
FA45  // [596] = -0.179077
FDF5  // [597] = -0.063843
12AD  // [598] = 0.583618
137F  // [599] = 0.609253
0F28  // [600] = 0.473633
FFEA  // [601] = -0.002686
FB21  // [602] = -0.152222
0C33  // [603] = 0.381226
FC0E  // [604] = -0.123291
FE03  // [605] = -0.062134
10B3  // [606] = 0.521851
168C  // [607] = 0.704590
FEDE  // [608] = -0.035400
FF8C  // [609] = -0.014160
FDC2  // [610] = -0.070068
F8B5  // [611] = -0.227905
065F  // [612] = 0.199097
09BB  // [613] = 0.304077
0A3E  // [614] = 0.320068
F982  // [615] = -0.202881
FDFA  // [616] = -0.063232
F43B  // [617] = -0.367798
00FE  // [618] = 0.031006
055F  // [619] = 0.167847
FABF  // [620] = -0.164185
FD85  // [621] = -0.077515
0287  // [622] = 0.078979
0974  // [623] = 0.295410
F462  // [624] = -0.363037
FFF0  // [625] = -0.001953
FD0A  // [626] = -0.092529
0674  // [627] = 0.201660
F7F4  // [628] = -0.251465
FD31  // [629] = -0.087769
0B09  // [630] = 0.344849
F84B  // [631] = -0.240845
F73E  // [632] = -0.273682
F60A  // [633] = -0.311279
F7E8  // [634] = -0.252930
F874  // [635] = -0.235840
0B05  // [636] = 0.344360
FC4A  // [637] = -0.115967
1304  // [638] = 0.594238
006A  // [639] = 0.012939
01F4  // [640] = 0.061035
0794  // [641] = 0.236816
E8F8  // [642] = -0.719727
FA70  // [643] = -0.173828
045C  // [644] = 0.136230
FC95  // [645] = -0.106812
FA80  // [646] = -0.171875
F896  // [647] = -0.231689
0342  // [648] = 0.101807
06A0  // [649] = 0.207031
01F5  // [650] = 0.061157
F8FF  // [651] = -0.218872
0795  // [652] = 0.236938
0382  // [653] = 0.109619
F265  // [654] = -0.425171
FB69  // [655] = -0.143433
F4BE  // [656] = -0.351807
05F5  // [657] = 0.186157
0054  // [658] = 0.010254
F67E  // [659] = -0.297119
0471  // [660] = 0.138794
043B  // [661] = 0.132202
F435  // [662] = -0.368530
F09C  // [663] = -0.480957
EC60  // [664] = -0.613281
00B1  // [665] = 0.021606
0301  // [666] = 0.093872
F369  // [667] = -0.393433
05AC  // [668] = 0.177246
0390  // [669] = 0.111328
F4D3  // [670] = -0.349243
F181  // [671] = -0.453003
0143  // [672] = 0.039429
0064  // [673] = 0.012207
0468  // [674] = 0.137695
051E  // [675] = 0.159912
FDE4  // [676] = -0.065918
FE2A  // [677] = -0.057373
FA24  // [678] = -0.183105
0618  // [679] = 0.190430
0471  // [680] = 0.138794
032B  // [681] = 0.098999
FF9F  // [682] = -0.011841
F274  // [683] = -0.423340
0149  // [684] = 0.040161
FF2E  // [685] = -0.025635
F7AA  // [686] = -0.260498
FB04  // [687] = -0.155762
0209  // [688] = 0.063599
FCDE  // [689] = -0.097900
040D  // [690] = 0.126587
FA11  // [691] = -0.185425
0777  // [692] = 0.233276
0261  // [693] = 0.074341
F77C  // [694] = -0.266113
01BA  // [695] = 0.053955
0381  // [696] = 0.109497
02E3  // [697] = 0.090210
03E4  // [698] = 0.121582
080D  // [699] = 0.251587
F80C  // [700] = -0.248535
FF1E  // [701] = -0.027588
F8EC  // [702] = -0.221191
0172  // [703] = 0.045166
FC9D  // [704] = -0.105835
FDE4  // [705] = -0.065918
1718  // [706] = 0.721680
0C47  // [707] = 0.383667
FC0E  // [708] = -0.123291
051A  // [709] = 0.159424
0993  // [710] = 0.299194
059F  // [711] = 0.175659
FB2D  // [712] = -0.150757
F5B0  // [713] = -0.322266
FEFD  // [714] = -0.031616
11D5  // [715] = 0.557251
F6F7  // [716] = -0.282349
F6DC  // [717] = -0.285645
0E38  // [718] = 0.444336
028F  // [719] = 0.079956
1610  // [720] = 0.689453
FA53  // [721] = -0.177368
FFA1  // [722] = -0.011597
0AB3  // [723] = 0.334351
FF2B  // [724] = -0.026001
FEF2  // [725] = -0.032959
0F15  // [726] = 0.471313
1646  // [727] = 0.696045
178D  // [728] = 0.735962
03F6  // [729] = 0.123779
F890  // [730] = -0.232422
0FC7  // [731] = 0.493042
FE67  // [732] = -0.049927
FC62  // [733] = -0.113037
0EEC  // [734] = 0.466309
1755  // [735] = 0.729126
FE3F  // [736] = -0.054810
0424  // [737] = 0.129395
FD98  // [738] = -0.075195
F9A0  // [739] = -0.199219
0440  // [740] = 0.132812
0748  // [741] = 0.227539
0406  // [742] = 0.125732
FD71  // [743] = -0.079956
FDF7  // [744] = -0.063599
FC6B  // [745] = -0.111938
FBB9  // [746] = -0.133667
0F1F  // [747] = 0.472534
F923  // [748] = -0.214478
FE22  // [749] = -0.058350
0787  // [750] = 0.235229
115F  // [751] = 0.542847
FB29  // [752] = -0.151245
FD6C  // [753] = -0.080566
FD65  // [754] = -0.081421
09CB  // [755] = 0.306030
F984  // [756] = -0.202637
FDAD  // [757] = -0.072632
0625  // [758] = 0.192017
F765  // [759] = -0.268921
F9A4  // [760] = -0.198730
FABF  // [761] = -0.164185
F3F3  // [762] = -0.376587
F877  // [763] = -0.235474
0B2F  // [764] = 0.349487
FF06  // [765] = -0.030518
0527  // [766] = 0.161011
FEE4  // [767] = -0.034668
031E  // [768] = 0.097412
0143  // [769] = 0.039429
E873  // [770] = -0.735962
F5E7  // [771] = -0.315552
015A  // [772] = 0.042236
003C  // [773] = 0.007324
FB5D  // [774] = -0.144897
F90F  // [775] = -0.216919
04A2  // [776] = 0.144775
010C  // [777] = 0.032715
044F  // [778] = 0.134644
FB4A  // [779] = -0.147217
06D5  // [780] = 0.213501
051D  // [781] = 0.159790
F209  // [782] = -0.436401
0164  // [783] = 0.043457
F19A  // [784] = -0.449951
039E  // [785] = 0.113037
FD8D  // [786] = -0.076538
F75D  // [787] = -0.269897
03C5  // [788] = 0.117798
028F  // [789] = 0.079956
EDAA  // [790] = -0.572998
EDC1  // [791] = -0.570190
EFB6  // [792] = -0.509033
FBE4  // [793] = -0.128418
02D5  // [794] = 0.088501
F02F  // [795] = -0.494263
005C  // [796] = 0.011230
012D  // [797] = 0.036743
EFD0  // [798] = -0.505859
EC39  // [799] = -0.618042
FFB9  // [800] = -0.008667
0125  // [801] = 0.035767
FEE4  // [802] = -0.034668
005F  // [803] = 0.011597
FB2F  // [804] = -0.150513
FCC3  // [805] = -0.101196
FD31  // [806] = -0.087769
05E6  // [807] = 0.184326
00C5  // [808] = 0.024048
08F0  // [809] = 0.279297
020E  // [810] = 0.064209
F498  // [811] = -0.356445
03D9  // [812] = 0.120239
01A3  // [813] = 0.051147
FF8A  // [814] = -0.014404
F654  // [815] = -0.302246
0110  // [816] = 0.033203
FD4F  // [817] = -0.084106
FF49  // [818] = -0.022339
F9E2  // [819] = -0.191162
03FF  // [820] = 0.124878
FED8  // [821] = -0.036133
F8CB  // [822] = -0.225220
0793  // [823] = 0.236694
00F2  // [824] = 0.029541
0195  // [825] = 0.049438
086D  // [826] = 0.263306
08CA  // [827] = 0.274658
F953  // [828] = -0.208618
021F  // [829] = 0.066284
F941  // [830] = -0.210815
FA3E  // [831] = -0.179932
04B3  // [832] = 0.146851
0306  // [833] = 0.094482
E770  // [834] = -0.767578
FC5C  // [835] = -0.113770
FE71  // [836] = -0.048706
FBAE  // [837] = -0.135010
FE32  // [838] = -0.056396
012D  // [839] = 0.036743
0502  // [840] = 0.156494
030A  // [841] = 0.094971
0022  // [842] = 0.004150
0111  // [843] = 0.033325
0756  // [844] = 0.229248
0650  // [845] = 0.197266
EB6B  // [846] = -0.643188
FE2B  // [847] = -0.057251
FEAB  // [848] = -0.041626
FF70  // [849] = -0.017578
FD28  // [850] = -0.088867
F918  // [851] = -0.215820
0337  // [852] = 0.100464
0243  // [853] = 0.070679
EDA5  // [854] = -0.573608
EB47  // [855] = -0.647583
F5FB  // [856] = -0.313110
FFE6  // [857] = -0.003174
FF1E  // [858] = -0.027588
F082  // [859] = -0.484131
015C  // [860] = 0.042480
0446  // [861] = 0.133545
F0CA  // [862] = -0.475342
E96F  // [863] = -0.705200
01DF  // [864] = 0.058472
FFA7  // [865] = -0.010864
0166  // [866] = 0.043701
FFA8  // [867] = -0.010742
FB8F  // [868] = -0.138794
F3A5  // [869] = -0.386108
F84A  // [870] = -0.240967
055A  // [871] = 0.167236
FF9E  // [872] = -0.011963
0E98  // [873] = 0.456055
FE86  // [874] = -0.046143
04FB  // [875] = 0.155640
FF57  // [876] = -0.020630
FDF5  // [877] = -0.063843
0063  // [878] = 0.012085
FD44  // [879] = -0.085449
0041  // [880] = 0.007935
026C  // [881] = 0.075684
FDFA  // [882] = -0.063232
F87D  // [883] = -0.234741
02B8  // [884] = 0.084961
041B  // [885] = 0.128296
F928  // [886] = -0.213867
057F  // [887] = 0.171753
05F6  // [888] = 0.186279
0521  // [889] = 0.160278
0364  // [890] = 0.105957
047E  // [891] = 0.140381
F722  // [892] = -0.277100
0016  // [893] = 0.002686
E824  // [894] = -0.745605
F9AB  // [895] = -0.197876
FD5E  // [896] = -0.082275
FAD2  // [897] = -0.161865
1590  // [898] = 0.673828
0933  // [899] = 0.287476
FD5C  // [900] = -0.082520
00C2  // [901] = 0.023682
09A3  // [902] = 0.301147
059E  // [903] = 0.175537
FA8A  // [904] = -0.170654
F854  // [905] = -0.239746
FD76  // [906] = -0.079346
05D0  // [907] = 0.181641
F7EF  // [908] = -0.252075
F865  // [909] = -0.237671
0FF1  // [910] = 0.498169
0544  // [911] = 0.164551
147C  // [912] = 0.640137
FAF7  // [913] = -0.157349
0313  // [914] = 0.096069
0CD0  // [915] = 0.400391
00D4  // [916] = 0.025879
FDBC  // [917] = -0.070801
0D1E  // [918] = 0.409912
11A0  // [919] = 0.550781
160D  // [920] = 0.689087
027C  // [921] = 0.077637
F93E  // [922] = -0.211182
0CC1  // [923] = 0.398560
FB3F  // [924] = -0.148560
F9D7  // [925] = -0.192505
1005  // [926] = 0.500610
17D4  // [927] = 0.744629
FB87  // [928] = -0.139771
02D9  // [929] = 0.088989
F8F1  // [930] = -0.220581
F9ED  // [931] = -0.189819
0236  // [932] = 0.069092
FFB2  // [933] = -0.009521
0441  // [934] = 0.132935
F875  // [935] = -0.235718
FE6D  // [936] = -0.049194
FB13  // [937] = -0.153931
0380  // [938] = 0.109375
0F63  // [939] = 0.480835
FD64  // [940] = -0.081543
0283  // [941] = 0.078491
0602  // [942] = 0.187744
0D0C  // [943] = 0.407715
F984  // [944] = -0.202637
005A  // [945] = 0.010986
FEC4  // [946] = -0.038574
09EC  // [947] = 0.310059
FCDD  // [948] = -0.098022
FAE7  // [949] = -0.159302
02BB  // [950] = 0.085327
F5EC  // [951] = -0.314941
FEB5  // [952] = -0.040405
FC28  // [953] = -0.120117
FB47  // [954] = -0.147583
F9D6  // [955] = -0.192627
0BB2  // [956] = 0.365479
FC5E  // [957] = -0.113525
0039  // [958] = 0.006958
0215  // [959] = 0.065063
0267  // [960] = 0.075073
0293  // [961] = 0.080444
E3B1  // [962] = -0.884644
FD7F  // [963] = -0.078247
043B  // [964] = 0.132202
0107  // [965] = 0.032104
FC1B  // [966] = -0.121704
FD5A  // [967] = -0.082764
0127  // [968] = 0.036011
0564  // [969] = 0.168457
004F  // [970] = 0.009644
FBD1  // [971] = -0.130737
0333  // [972] = 0.099976
056E  // [973] = 0.169678
EF23  // [974] = -0.526978
FEE6  // [975] = -0.034424
F92B  // [976] = -0.213501
FF15  // [977] = -0.028687
00A5  // [978] = 0.020142
F2D1  // [979] = -0.411987
064E  // [980] = 0.197021
0064  // [981] = 0.012207
F07F  // [982] = -0.484497
EBD8  // [983] = -0.629883
F185  // [984] = -0.452515
FED8  // [985] = -0.036133
0530  // [986] = 0.162109
F343  // [987] = -0.398071
00BA  // [988] = 0.022705
0520  // [989] = 0.160156
F288  // [990] = -0.420898
EF32  // [991] = -0.525146
03C8  // [992] = 0.118164
0100  // [993] = 0.031250
FEBB  // [994] = -0.039673
035B  // [995] = 0.104858
FA5F  // [996] = -0.175903
F709  // [997] = -0.280151
F9C1  // [998] = -0.195190
02D4  // [999] = 0.088379
0026  // [1000] = 0.004639
0BFB  // [1001] = 0.374390
FF62  // [1002] = -0.019287
FBE7  // [1003] = -0.128052
0218  // [1004] = 0.065430
FE9F  // [1005] = -0.043091
FD66  // [1006] = -0.081299
FA10  // [1007] = -0.185547
04D4  // [1008] = 0.150879
FF38  // [1009] = -0.024414
FFF1  // [1010] = -0.001831
F5AE  // [1011] = -0.322510
037E  // [1012] = 0.109131
FF47  // [1013] = -0.022583
F76F  // [1014] = -0.267700
05CB  // [1015] = 0.181030
035F  // [1016] = 0.105347
00EC  // [1017] = 0.028809
026D  // [1018] = 0.075806
0806  // [1019] = 0.250732
F78D  // [1020] = -0.264038
048A  // [1021] = 0.141846
F351  // [1022] = -0.396362
FE2B  // [1023] = -0.057251
