// Parameter: fc2.weight
// Shape: [16, 64]
// Format: QS2_13 (16-bit signed, 2 integer bits, 13 fractional bits)
// Range: [-4.000000, 3.999878], Resolution: 7.999878
// Total values: 1024
//
0187  // [0] = 0.047729
FF46  // [1] = -0.022705
F9A0  // [2] = -0.199219
01F1  // [3] = 0.060669
E9CD  // [4] = -0.693726
FEA8  // [5] = -0.041992
0313  // [6] = 0.096069
0414  // [7] = 0.127441
FE4B  // [8] = -0.053345
FB6A  // [9] = -0.143311
0072  // [10] = 0.013916
004B  // [11] = 0.009155
021A  // [12] = 0.065674
0196  // [13] = 0.049561
EA6B  // [14] = -0.674438
0027  // [15] = 0.004761
0497  // [16] = 0.143433
02F1  // [17] = 0.091919
FE91  // [18] = -0.044800
F76C  // [19] = -0.268066
FFD5  // [20] = -0.005249
EF73  // [21] = -0.517212
04F6  // [22] = 0.155029
FD56  // [23] = -0.083252
FC4F  // [24] = -0.115356
0030  // [25] = 0.005859
0425  // [26] = 0.129517
00FA  // [27] = 0.030518
014B  // [28] = 0.040405
FC66  // [29] = -0.112549
04A5  // [30] = 0.145142
0025  // [31] = 0.004517
0075  // [32] = 0.014282
FA67  // [33] = -0.174927
0477  // [34] = 0.139526
078C  // [35] = 0.235840
F3AD  // [36] = -0.385132
F785  // [37] = -0.265015
032D  // [38] = 0.099243
F342  // [39] = -0.398193
F238  // [40] = -0.430664
01B0  // [41] = 0.052734
ED36  // [42] = -0.587158
FBDF  // [43] = -0.129028
007A  // [44] = 0.014893
01DD  // [45] = 0.058228
00C5  // [46] = 0.024048
001A  // [47] = 0.003174
04B5  // [48] = 0.147095
F76F  // [49] = -0.267700
04A1  // [50] = 0.144653
FB79  // [51] = -0.141479
010C  // [52] = 0.032715
02BE  // [53] = 0.085693
01EE  // [54] = 0.060303
FE57  // [55] = -0.051880
FEB0  // [56] = -0.041016
FD28  // [57] = -0.088867
02E1  // [58] = 0.089966
0C3B  // [59] = 0.382202
0710  // [60] = 0.220703
FFC6  // [61] = -0.007080
F84F  // [62] = -0.240356
0082  // [63] = 0.015869
0692  // [64] = 0.205322
FAE0  // [65] = -0.160156
06C5  // [66] = 0.211548
0090  // [67] = 0.017578
1C1C  // [68] = 0.878418
08C9  // [69] = 0.274536
F58E  // [70] = -0.326416
FD0E  // [71] = -0.092041
00A6  // [72] = 0.020264
05DA  // [73] = 0.182861
FCF2  // [74] = -0.095459
066F  // [75] = 0.201050
F3E8  // [76] = -0.377930
FEE9  // [77] = -0.034058
1AA7  // [78] = 0.832886
042D  // [79] = 0.130493
F99E  // [80] = -0.199463
F55B  // [81] = -0.332642
0292  // [82] = 0.080322
10D0  // [83] = 0.525391
FFDC  // [84] = -0.004395
1658  // [85] = 0.698242
FADE  // [86] = -0.160400
0583  // [87] = 0.172241
1F26  // [88] = 0.973389
F918  // [89] = -0.215820
F95E  // [90] = -0.207275
F035  // [91] = -0.493530
FFBB  // [92] = -0.008423
0203  // [93] = 0.062866
F92F  // [94] = -0.213013
F662  // [95] = -0.300537
0160  // [96] = 0.042969
0619  // [97] = 0.190552
03E1  // [98] = 0.121216
F9E4  // [99] = -0.190918
0E66  // [100] = 0.449951
FF92  // [101] = -0.013428
FB56  // [102] = -0.145752
13F1  // [103] = 0.623169
036C  // [104] = 0.106934
FF14  // [105] = -0.028809
21B6  // [106] = 1.053467
1C27  // [107] = 0.879761
FFB7  // [108] = -0.008911
F9F2  // [109] = -0.189209
029C  // [110] = 0.081543
0ABC  // [111] = 0.335449
FA1F  // [112] = -0.183716
17A4  // [113] = 0.738770
ED40  // [114] = -0.585938
10ED  // [115] = 0.528931
F6A8  // [116] = -0.291992
FC49  // [117] = -0.116089
F912  // [118] = -0.216553
07A3  // [119] = 0.238647
05E7  // [120] = 0.184448
0253  // [121] = 0.072632
FE78  // [122] = -0.047852
F381  // [123] = -0.390503
F0EE  // [124] = -0.470947
01E9  // [125] = 0.059692
03A3  // [126] = 0.113647
15D8  // [127] = 0.682617
FFB8  // [128] = -0.008789
FA82  // [129] = -0.171631
035B  // [130] = 0.104858
00E9  // [131] = 0.028442
2095  // [132] = 1.018188
03D2  // [133] = 0.119385
FCBE  // [134] = -0.101807
FAB7  // [135] = -0.165161
FD72  // [136] = -0.079834
0840  // [137] = 0.257812
FDF0  // [138] = -0.064453
09C8  // [139] = 0.305664
FAFA  // [140] = -0.156982
FBD0  // [141] = -0.130859
1E6C  // [142] = 0.950684
0215  // [143] = 0.065063
FD0A  // [144] = -0.092529
FB9D  // [145] = -0.137085
FE20  // [146] = -0.058594
0E59  // [147] = 0.448364
FFE7  // [148] = -0.003052
1B93  // [149] = 0.861694
FCEE  // [150] = -0.095947
0348  // [151] = 0.102539
151E  // [152] = 0.659912
FB86  // [153] = -0.139893
FC67  // [154] = -0.112427
FC2C  // [155] = -0.119629
FD10  // [156] = -0.091797
0238  // [157] = 0.069336
FD45  // [158] = -0.085327
FE0A  // [159] = -0.061279
02CB  // [160] = 0.087280
06BE  // [161] = 0.210693
000D  // [162] = 0.001587
F9D4  // [163] = -0.192871
0F8C  // [164] = 0.485840
0972  // [165] = 0.295166
FE0B  // [166] = -0.061157
0FD3  // [167] = 0.494507
0EDD  // [168] = 0.464478
FE87  // [169] = -0.046021
148B  // [170] = 0.641968
09AF  // [171] = 0.302612
FD89  // [172] = -0.077026
FCD5  // [173] = -0.098999
FEBD  // [174] = -0.039429
08B6  // [175] = 0.272217
FA1C  // [176] = -0.184082
08BC  // [177] = 0.272949
F99F  // [178] = -0.199341
0DAE  // [179] = 0.427490
FA03  // [180] = -0.187134
FE05  // [181] = -0.061890
0048  // [182] = 0.008789
02C9  // [183] = 0.087036
04B1  // [184] = 0.146606
04A5  // [185] = 0.145142
FFA2  // [186] = -0.011475
F3FC  // [187] = -0.375488
F669  // [188] = -0.299683
FDC9  // [189] = -0.069214
07F0  // [190] = 0.248047
05A1  // [191] = 0.175903
F9D0  // [192] = -0.193359
0159  // [193] = 0.042114
FE7F  // [194] = -0.046997
FFB4  // [195] = -0.009277
EB67  // [196] = -0.643677
FC15  // [197] = -0.122437
08A6  // [198] = 0.270264
01A7  // [199] = 0.051636
FF5B  // [200] = -0.020142
00A8  // [201] = 0.020508
FE00  // [202] = -0.062500
FD16  // [203] = -0.091064
063E  // [204] = 0.195068
FB9F  // [205] = -0.136841
E84A  // [206] = -0.740967
F9A3  // [207] = -0.198853
059D  // [208] = 0.175415
0BB4  // [209] = 0.365723
FDF6  // [210] = -0.063721
F2FE  // [211] = -0.406494
026E  // [212] = 0.075928
F75C  // [213] = -0.270020
06FF  // [214] = 0.218628
FC68  // [215] = -0.112305
F09B  // [216] = -0.481079
06EC  // [217] = 0.216309
0339  // [218] = 0.100708
0A43  // [219] = 0.320679
0017  // [220] = 0.002808
FE8E  // [221] = -0.045166
06D0  // [222] = 0.212891
05F8  // [223] = 0.186523
004F  // [224] = 0.009644
F9B8  // [225] = -0.196289
F59C  // [226] = -0.324707
06A7  // [227] = 0.207886
F678  // [228] = -0.297852
FFB1  // [229] = -0.009644
05C7  // [230] = 0.180542
E4D6  // [231] = -0.848877
FCBC  // [232] = -0.102051
01AF  // [233] = 0.052612
E22B  // [234] = -0.932251
EA3E  // [235] = -0.679932
FF99  // [236] = -0.012573
032E  // [237] = 0.099365
FE0B  // [238] = -0.061157
F6A7  // [239] = -0.292114
02DB  // [240] = 0.089233
EE37  // [241] = -0.555786
059B  // [242] = 0.175171
F790  // [243] = -0.263672
0552  // [244] = 0.166260
03DF  // [245] = 0.120972
0A3A  // [246] = 0.319580
FBB3  // [247] = -0.134399
F7B9  // [248] = -0.258667
FAAA  // [249] = -0.166748
FDA3  // [250] = -0.073853
07CE  // [251] = 0.243896
0728  // [252] = 0.223633
FC6D  // [253] = -0.111694
F8C9  // [254] = -0.225464
ED79  // [255] = -0.578979
00BE  // [256] = 0.023193
04EC  // [257] = 0.153809
FF03  // [258] = -0.030884
FE54  // [259] = -0.052246
FC56  // [260] = -0.114502
067A  // [261] = 0.202393
F8C5  // [262] = -0.225952
01CD  // [263] = 0.056274
F656  // [264] = -0.302002
FF73  // [265] = -0.017212
07A5  // [266] = 0.238892
FAC9  // [267] = -0.162964
0403  // [268] = 0.125366
0309  // [269] = 0.094849
F9A0  // [270] = -0.199219
03B2  // [271] = 0.115479
FE5C  // [272] = -0.051270
019B  // [273] = 0.050171
00BA  // [274] = 0.022705
06D8  // [275] = 0.213867
FE6D  // [276] = -0.049194
ECE7  // [277] = -0.596802
041B  // [278] = 0.128296
00D7  // [279] = 0.026245
01A6  // [280] = 0.051514
039B  // [281] = 0.112671
FE7B  // [282] = -0.047485
01A8  // [283] = 0.051758
FDF3  // [284] = -0.064087
FE8F  // [285] = -0.045044
0194  // [286] = 0.049316
0344  // [287] = 0.102051
FE71  // [288] = -0.048706
084A  // [289] = 0.259033
0376  // [290] = 0.108154
0393  // [291] = 0.111694
FCF1  // [292] = -0.095581
F174  // [293] = -0.454590
02B7  // [294] = 0.084839
0169  // [295] = 0.044067
EFD0  // [296] = -0.505859
001E  // [297] = 0.003662
FE99  // [298] = -0.043823
038D  // [299] = 0.110962
FEEC  // [300] = -0.033691
0284  // [301] = 0.078613
09E0  // [302] = 0.308594
FE70  // [303] = -0.048828
07EE  // [304] = 0.247803
04B4  // [305] = 0.146973
02B7  // [306] = 0.084839
013C  // [307] = 0.038574
0169  // [308] = 0.044067
0478  // [309] = 0.139648
EEF2  // [310] = -0.532959
04CC  // [311] = 0.149902
02C6  // [312] = 0.086670
F6C0  // [313] = -0.289062
00F1  // [314] = 0.029419
0824  // [315] = 0.254395
02FB  // [316] = 0.093140
0168  // [317] = 0.043945
FCF6  // [318] = -0.094971
FF9F  // [319] = -0.011841
FADE  // [320] = -0.160400
0769  // [321] = 0.231567
F8AE  // [322] = -0.228760
00A1  // [323] = 0.019653
DF79  // [324] = -1.016479
FEFE  // [325] = -0.031494
027D  // [326] = 0.077759
03BC  // [327] = 0.116699
FFCD  // [328] = -0.006226
F8C2  // [329] = -0.226318
05D3  // [330] = 0.182007
F856  // [331] = -0.239502
0B2B  // [332] = 0.348999
FF88  // [333] = -0.014648
DE17  // [334] = -1.059692
FE31  // [335] = -0.056519
064F  // [336] = 0.197144
0AFA  // [337] = 0.343018
022A  // [338] = 0.067627
F69C  // [339] = -0.293457
FF84  // [340] = -0.015137
E09C  // [341] = -0.980957
06E8  // [342] = 0.215820
FCFC  // [343] = -0.094238
E52D  // [344] = -0.838257
0735  // [345] = 0.225220
084A  // [346] = 0.259033
10E6  // [347] = 0.528076
0298  // [348] = 0.081055
FDB2  // [349] = -0.072021
092C  // [350] = 0.286621
089F  // [351] = 0.269409
004C  // [352] = 0.009277
FBF8  // [353] = -0.125977
FFC7  // [354] = -0.006958
0785  // [355] = 0.234985
EE57  // [356] = -0.551880
F222  // [357] = -0.433350
05F1  // [358] = 0.185669
EF32  // [359] = -0.525146
E871  // [360] = -0.736206
FF3B  // [361] = -0.024048
E98B  // [362] = -0.701782
F24A  // [363] = -0.428467
03F8  // [364] = 0.124023
0496  // [365] = 0.143311
0300  // [366] = 0.093750
F501  // [367] = -0.343628
0919  // [368] = 0.284302
F6B1  // [369] = -0.290894
0FA8  // [370] = 0.489258
F3C6  // [371] = -0.382080
05F7  // [372] = 0.186401
0900  // [373] = 0.281250
FC88  // [374] = -0.108398
FE3B  // [375] = -0.055298
F9CC  // [376] = -0.193848
FBE7  // [377] = -0.128052
04A5  // [378] = 0.145142
0DF6  // [379] = 0.436279
0F1B  // [380] = 0.472046
FA6C  // [381] = -0.174316
F60D  // [382] = -0.310913
F4A7  // [383] = -0.354614
FBDB  // [384] = -0.129517
04EF  // [385] = 0.154175
FD22  // [386] = -0.089600
FF97  // [387] = -0.012817
E591  // [388] = -0.826050
FCAB  // [389] = -0.104126
02BD  // [390] = 0.085571
0118  // [391] = 0.034180
0312  // [392] = 0.095947
FDC5  // [393] = -0.069702
0178  // [394] = 0.045898
0059  // [395] = 0.010864
031B  // [396] = 0.097046
011A  // [397] = 0.034424
E67E  // [398] = -0.797119
FED7  // [399] = -0.036255
04D6  // [400] = 0.151123
06DD  // [401] = 0.214478
FCCB  // [402] = -0.100220
F59D  // [403] = -0.324585
F9A5  // [404] = -0.198608
F2E1  // [405] = -0.410034
05A3  // [406] = 0.176147
FB66  // [407] = -0.143799
F9B2  // [408] = -0.197021
0162  // [409] = 0.043213
0532  // [410] = 0.162354
08E8  // [411] = 0.278320
00ED  // [412] = 0.028931
FBD5  // [413] = -0.130249
0293  // [414] = 0.080444
0410  // [415] = 0.126953
FED2  // [416] = -0.036865
F813  // [417] = -0.247681
0434  // [418] = 0.131348
0C3B  // [419] = 0.382202
F100  // [420] = -0.468750
F642  // [421] = -0.304443
06BF  // [422] = 0.210815
E6DE  // [423] = -0.785400
F194  // [424] = -0.450684
01B5  // [425] = 0.053345
E9F9  // [426] = -0.688354
F835  // [427] = -0.243530
FEB0  // [428] = -0.041016
0557  // [429] = 0.166870
FFE4  // [430] = -0.003418
F6C9  // [431] = -0.287964
06F6  // [432] = 0.217529
FA1D  // [433] = -0.183960
01AE  // [434] = 0.052490
FD58  // [435] = -0.083008
059F  // [436] = 0.175659
006A  // [437] = 0.012939
0224  // [438] = 0.066895
F925  // [439] = -0.214233
FC72  // [440] = -0.111084
F79B  // [441] = -0.262329
0463  // [442] = 0.137085
0B51  // [443] = 0.353638
040B  // [444] = 0.126343
FA66  // [445] = -0.175049
F6E9  // [446] = -0.284058
FB9C  // [447] = -0.137207
009A  // [448] = 0.018799
F97B  // [449] = -0.203735
041B  // [450] = 0.128296
FDF8  // [451] = -0.063477
1F2D  // [452] = 0.974243
00EC  // [453] = 0.028809
013B  // [454] = 0.038452
FD6F  // [455] = -0.080200
0243  // [456] = 0.070679
06A0  // [457] = 0.207031
FDA7  // [458] = -0.073364
0967  // [459] = 0.293823
F3E4  // [460] = -0.378418
0065  // [461] = 0.012329
1FD0  // [462] = 0.994141
0623  // [463] = 0.191772
FCC6  // [464] = -0.100830
FADC  // [465] = -0.160645
0213  // [466] = 0.064819
0A09  // [467] = 0.313599
01E7  // [468] = 0.059448
21DF  // [469] = 1.058472
FA89  // [470] = -0.170776
0564  // [471] = 0.168457
1C20  // [472] = 0.878906
FC87  // [473] = -0.108521
F940  // [474] = -0.210938
F69F  // [475] = -0.293091
008A  // [476] = 0.016846
FF53  // [477] = -0.021118
FAC4  // [478] = -0.163574
FA58  // [479] = -0.176758
0271  // [480] = 0.076294
03E2  // [481] = 0.121338
F98E  // [482] = -0.201416
FA83  // [483] = -0.171509
0B2E  // [484] = 0.349365
0F3D  // [485] = 0.476196
FC4E  // [486] = -0.115479
086B  // [487] = 0.263062
1B39  // [488] = 0.850708
FE9D  // [489] = -0.043335
1117  // [490] = 0.534058
07C3  // [491] = 0.242554
FDC6  // [492] = -0.069580
FD23  // [493] = -0.089478
FA0D  // [494] = -0.185913
0746  // [495] = 0.227295
F8CB  // [496] = -0.225220
065E  // [497] = 0.198975
F196  // [498] = -0.450439
0C85  // [499] = 0.391235
F6DA  // [500] = -0.285889
FCB1  // [501] = -0.103394
083D  // [502] = 0.257446
00FB  // [503] = 0.030640
070C  // [504] = 0.220215
0912  // [505] = 0.283447
FD64  // [506] = -0.081543
EF40  // [507] = -0.523438
F260  // [508] = -0.425781
0161  // [509] = 0.043091
08EA  // [510] = 0.278564
0395  // [511] = 0.111938
0134  // [512] = 0.037598
0512  // [513] = 0.158447
F9AF  // [514] = -0.197388
FEA9  // [515] = -0.041870
EFE7  // [516] = -0.503052
073C  // [517] = 0.226074
F6BB  // [518] = -0.289673
0008  // [519] = 0.000977
FC34  // [520] = -0.118652
FB3F  // [521] = -0.148560
064F  // [522] = 0.197144
F7F1  // [523] = -0.251831
0690  // [524] = 0.205078
FF8B  // [525] = -0.014282
F18A  // [526] = -0.451904
FFFC  // [527] = -0.000488
05F3  // [528] = 0.185913
019E  // [529] = 0.050537
FDAD  // [530] = -0.072632
025E  // [531] = 0.073975
FC79  // [532] = -0.110229
EBE7  // [533] = -0.628052
055E  // [534] = 0.167725
01FA  // [535] = 0.061768
F826  // [536] = -0.245361
0643  // [537] = 0.195679
0609  // [538] = 0.188599
0A40  // [539] = 0.320312
FFE5  // [540] = -0.003296
00D3  // [541] = 0.025757
03AC  // [542] = 0.114746
0829  // [543] = 0.255005
FE49  // [544] = -0.053589
FFF8  // [545] = -0.000977
0901  // [546] = 0.281372
05DC  // [547] = 0.183105
F515  // [548] = -0.341187
EEC9  // [549] = -0.537964
FEAC  // [550] = -0.041504
0214  // [551] = 0.064941
EAE5  // [552] = -0.659546
0054  // [553] = 0.010254
FAF1  // [554] = -0.158081
06B6  // [555] = 0.209717
FD24  // [556] = -0.089355
02F4  // [557] = 0.092285
03FB  // [558] = 0.124390
F89D  // [559] = -0.230835
0497  // [560] = 0.143433
07A9  // [561] = 0.239380
0616  // [562] = 0.190186
FA7D  // [563] = -0.172241
08D6  // [564] = 0.276123
068E  // [565] = 0.204834
F4FB  // [566] = -0.344360
0157  // [567] = 0.041870
FF9B  // [568] = -0.012329
F6F7  // [569] = -0.282349
0118  // [570] = 0.034180
0A1E  // [571] = 0.316162
07B5  // [572] = 0.240845
FF25  // [573] = -0.026733
FBA0  // [574] = -0.136719
0577  // [575] = 0.170776
0124  // [576] = 0.035645
FEED  // [577] = -0.033569
0378  // [578] = 0.108398
FFE3  // [579] = -0.003540
1D33  // [580] = 0.912476
FE9E  // [581] = -0.043213
FF58  // [582] = -0.020508
FE9D  // [583] = -0.043335
0012  // [584] = 0.002197
07A6  // [585] = 0.239014
FFE6  // [586] = -0.003174
08FD  // [587] = 0.280884
F791  // [588] = -0.263550
FEA4  // [589] = -0.042480
1BBB  // [590] = 0.866577
0203  // [591] = 0.062866
FCC1  // [592] = -0.101440
FE98  // [593] = -0.043945
FECB  // [594] = -0.037720
0E2A  // [595] = 0.442627
FFBF  // [596] = -0.007935
1EB6  // [597] = 0.959717
FD4D  // [598] = -0.084351
0392  // [599] = 0.111572
179E  // [600] = 0.738037
FD7D  // [601] = -0.078491
FB90  // [602] = -0.138672
F7A4  // [603] = -0.261230
022B  // [604] = 0.067749
020A  // [605] = 0.063721
FA09  // [606] = -0.186401
FC67  // [607] = -0.112427
0071  // [608] = 0.013794
0635  // [609] = 0.193970
0050  // [610] = 0.009766
F6E3  // [611] = -0.284790
0EE1  // [612] = 0.464966
0CF5  // [613] = 0.404907
FF47  // [614] = -0.022583
0A5D  // [615] = 0.323853
125B  // [616] = 0.573608
0068  // [617] = 0.012695
1397  // [618] = 0.612183
0766  // [619] = 0.231201
016A  // [620] = 0.044189
FCB0  // [621] = -0.103516
FCF2  // [622] = -0.095459
089E  // [623] = 0.269287
FA04  // [624] = -0.187012
076B  // [625] = 0.231812
FAEF  // [626] = -0.158325
0C69  // [627] = 0.387817
F97B  // [628] = -0.203735
F974  // [629] = -0.204590
00A3  // [630] = 0.019897
04BA  // [631] = 0.147705
0578  // [632] = 0.170898
03E1  // [633] = 0.121216
FE30  // [634] = -0.056641
F3C6  // [635] = -0.382080
F999  // [636] = -0.200073
FF23  // [637] = -0.026978
0870  // [638] = 0.263672
049F  // [639] = 0.144409
00D0  // [640] = 0.025391
FAA9  // [641] = -0.166870
02D3  // [642] = 0.088257
01F5  // [643] = 0.061157
15C0  // [644] = 0.679688
FC02  // [645] = -0.124756
07A8  // [646] = 0.239258
FBE2  // [647] = -0.128662
0106  // [648] = 0.031982
065F  // [649] = 0.199097
F71F  // [650] = -0.277466
09F6  // [651] = 0.311279
F494  // [652] = -0.356934
FE91  // [653] = -0.044800
11B7  // [654] = 0.553589
0623  // [655] = 0.191772
FAFA  // [656] = -0.156982
FA2C  // [657] = -0.182129
03BF  // [658] = 0.117065
0443  // [659] = 0.133179
016B  // [660] = 0.044312
193A  // [661] = 0.788330
F736  // [662] = -0.274658
006A  // [663] = 0.012939
1942  // [664] = 0.789307
F485  // [665] = -0.358765
FC62  // [666] = -0.113037
F5AC  // [667] = -0.322754
FE57  // [668] = -0.051880
021B  // [669] = 0.065796
FA21  // [670] = -0.183472
F204  // [671] = -0.437012
00DA  // [672] = 0.026611
FB61  // [673] = -0.144409
F9EF  // [674] = -0.189575
FB8E  // [675] = -0.138916
0854  // [676] = 0.260254
13AE  // [677] = 0.614990
FFF5  // [678] = -0.001343
FCAB  // [679] = -0.104126
19E8  // [680] = 0.809570
001F  // [681] = 0.003784
0617  // [682] = 0.190308
FB07  // [683] = -0.155396
FF81  // [684] = -0.015503
FF54  // [685] = -0.020996
F907  // [686] = -0.217896
06FF  // [687] = 0.218628
F93B  // [688] = -0.211548
F979  // [689] = -0.203979
F0AD  // [690] = -0.478882
0CA7  // [691] = 0.395386
F88E  // [692] = -0.232666
F9FC  // [693] = -0.187988
0A3F  // [694] = 0.320190
009E  // [695] = 0.019287
040D  // [696] = 0.126587
07A5  // [697] = 0.238892
FF6F  // [698] = -0.017700
F197  // [699] = -0.450317
F41D  // [700] = -0.371460
029F  // [701] = 0.081909
089C  // [702] = 0.269043
F96F  // [703] = -0.205200
05E7  // [704] = 0.184448
FABA  // [705] = -0.164795
07A9  // [706] = 0.239380
FD8D  // [707] = -0.076538
217C  // [708] = 1.046387
0150  // [709] = 0.041016
00B9  // [710] = 0.022583
FDB2  // [711] = -0.072021
FDF0  // [712] = -0.064453
0486  // [713] = 0.141357
FDE6  // [714] = -0.065674
08C4  // [715] = 0.273926
F511  // [716] = -0.341675
002A  // [717] = 0.005127
1D5F  // [718] = 0.917847
01E4  // [719] = 0.059082
FC07  // [720] = -0.124146
FAE0  // [721] = -0.160156
0167  // [722] = 0.043823
0B50  // [723] = 0.353516
0212  // [724] = 0.064697
1D9D  // [725] = 0.925415
F8A9  // [726] = -0.229370
036C  // [727] = 0.106934
1AA8  // [728] = 0.833008
FC8E  // [729] = -0.107666
FC68  // [730] = -0.112305
FA62  // [731] = -0.175537
FDDB  // [732] = -0.067017
FF9D  // [733] = -0.012085
FAE7  // [734] = -0.159302
FCC8  // [735] = -0.100586
FF75  // [736] = -0.016968
04F2  // [737] = 0.154541
FCFF  // [738] = -0.093872
F5BE  // [739] = -0.320557
11C0  // [740] = 0.554688
0D5A  // [741] = 0.417236
FDA6  // [742] = -0.073486
0BCC  // [743] = 0.368652
1043  // [744] = 0.508179
FEA9  // [745] = -0.041870
154E  // [746] = 0.665771
0DFB  // [747] = 0.436890
FF98  // [748] = -0.012695
FEEE  // [749] = -0.033447
FC0B  // [750] = -0.123657
0A2C  // [751] = 0.317871
FB0C  // [752] = -0.154785
0C4B  // [753] = 0.384155
F53E  // [754] = -0.336182
1030  // [755] = 0.505859
F9C3  // [756] = -0.194946
FE20  // [757] = -0.058594
032C  // [758] = 0.099121
0389  // [759] = 0.110474
0672  // [760] = 0.201416
03FA  // [761] = 0.124268
FF12  // [762] = -0.029053
F264  // [763] = -0.425293
F7FC  // [764] = -0.250488
02F9  // [765] = 0.092896
0920  // [766] = 0.285156
06C1  // [767] = 0.211060
0011  // [768] = 0.002075
FF92  // [769] = -0.013428
FAF7  // [770] = -0.157349
FD7E  // [771] = -0.078369
E5AB  // [772] = -0.822876
FCBD  // [773] = -0.101929
02F4  // [774] = 0.092285
0149  // [775] = 0.040161
FD15  // [776] = -0.091187
FEEC  // [777] = -0.033691
01F0  // [778] = 0.060547
00BB  // [779] = 0.022827
0679  // [780] = 0.202271
03EE  // [781] = 0.122803
E85F  // [782] = -0.738403
FEFE  // [783] = -0.031494
0523  // [784] = 0.160522
07BB  // [785] = 0.241577
FBF8  // [786] = -0.125977
F98C  // [787] = -0.201660
FC83  // [788] = -0.109009
F236  // [789] = -0.430908
0173  // [790] = 0.045288
FCAE  // [791] = -0.103760
F74A  // [792] = -0.272217
FFAD  // [793] = -0.010132
0549  // [794] = 0.165161
01F1  // [795] = 0.060669
034E  // [796] = 0.103271
FEEA  // [797] = -0.033936
0092  // [798] = 0.017822
0419  // [799] = 0.128052
0214  // [800] = 0.064941
FAA6  // [801] = -0.167236
0199  // [802] = 0.049927
09A1  // [803] = 0.300903
F54B  // [804] = -0.334595
F8A6  // [805] = -0.229736
0258  // [806] = 0.073242
EB5E  // [807] = -0.644775
F73F  // [808] = -0.273560
0233  // [809] = 0.068726
E9F2  // [810] = -0.689209
F88D  // [811] = -0.232788
01E0  // [812] = 0.058594
034C  // [813] = 0.103027
0118  // [814] = 0.034180
FDC0  // [815] = -0.070312
055E  // [816] = 0.167725
F4DB  // [817] = -0.348267
0303  // [818] = 0.094116
F9CE  // [819] = -0.193604
03E3  // [820] = 0.121460
FF2F  // [821] = -0.025513
04C7  // [822] = 0.149292
F9BB  // [823] = -0.195923
FAED  // [824] = -0.158569
FC5D  // [825] = -0.113647
017B  // [826] = 0.046265
0701  // [827] = 0.218872
0689  // [828] = 0.204224
FF05  // [829] = -0.030640
FA96  // [830] = -0.169189
FB21  // [831] = -0.152222
FF84  // [832] = -0.015137
0317  // [833] = 0.096558
F7D7  // [834] = -0.255005
007E  // [835] = 0.015381
E4D5  // [836] = -0.848999
02E8  // [837] = 0.090820
FC8D  // [838] = -0.107788
02F0  // [839] = 0.091797
FEB3  // [840] = -0.040649
F9FE  // [841] = -0.187744
0463  // [842] = 0.137085
F904  // [843] = -0.218262
06C1  // [844] = 0.211060
038D  // [845] = 0.110962
E687  // [846] = -0.796021
FD76  // [847] = -0.079346
067A  // [848] = 0.202393
07A1  // [849] = 0.238403
FCED  // [850] = -0.096069
F8C2  // [851] = -0.226318
FA76  // [852] = -0.173096
E71C  // [853] = -0.777832
02A6  // [854] = 0.082764
FB27  // [855] = -0.151489
EF8F  // [856] = -0.513794
084C  // [857] = 0.259277
0669  // [858] = 0.200317
0A87  // [859] = 0.328979
0057  // [860] = 0.010620
00C9  // [861] = 0.024536
03B1  // [862] = 0.115356
05D0  // [863] = 0.181641
FCEB  // [864] = -0.096313
FEC3  // [865] = -0.038696
033A  // [866] = 0.100830
06A9  // [867] = 0.208130
F192  // [868] = -0.450928
F161  // [869] = -0.456909
019D  // [870] = 0.050415
F687  // [871] = -0.296021
EA93  // [872] = -0.669556
003B  // [873] = 0.007202
F2B9  // [874] = -0.414917
FA97  // [875] = -0.169067
FE1B  // [876] = -0.059204
036F  // [877] = 0.107300
067E  // [878] = 0.202881
F920  // [879] = -0.214844
05BE  // [880] = 0.179443
FDC0  // [881] = -0.070312
0D82  // [882] = 0.422119
F7EF  // [883] = -0.252075
06D5  // [884] = 0.213501
0675  // [885] = 0.201782
F817  // [886] = -0.247192
FD0F  // [887] = -0.091919
FBD4  // [888] = -0.130371
FACD  // [889] = -0.162476
00C0  // [890] = 0.023438
0B2B  // [891] = 0.348999
0DD2  // [892] = 0.431885
FC51  // [893] = -0.115112
F74E  // [894] = -0.271729
02BA  // [895] = 0.085205
FE8B  // [896] = -0.045532
0391  // [897] = 0.111450
FE63  // [898] = -0.050415
FEFD  // [899] = -0.031616
E543  // [900] = -0.835571
0292  // [901] = 0.080322
FCBF  // [902] = -0.101685
0411  // [903] = 0.127075
033A  // [904] = 0.100830
F621  // [905] = -0.308472
0694  // [906] = 0.205566
F958  // [907] = -0.208008
0D9C  // [908] = 0.425293
0307  // [909] = 0.094604
E669  // [910] = -0.799683
FF8D  // [911] = -0.014038
02E9  // [912] = 0.090942
064C  // [913] = 0.196777
FD78  // [914] = -0.079102
FD6A  // [915] = -0.080811
FCD7  // [916] = -0.098755
E39D  // [917] = -0.887085
04F6  // [918] = 0.155029
FFC3  // [919] = -0.007446
EE32  // [920] = -0.556396
0920  // [921] = 0.285156
0673  // [922] = 0.201538
0E39  // [923] = 0.444458
00B3  // [924] = 0.021851
FB41  // [925] = -0.148315
09B3  // [926] = 0.303101
092D  // [927] = 0.286743
FE2D  // [928] = -0.057007
FF79  // [929] = -0.016479
0ACC  // [930] = 0.337402
093E  // [931] = 0.288818
EF10  // [932] = -0.529297
EC03  // [933] = -0.624634
0210  // [934] = 0.064453
FF15  // [935] = -0.028687
E667  // [936] = -0.799927
FDDC  // [937] = -0.066895
F757  // [938] = -0.270630
FEC0  // [939] = -0.039062
01A0  // [940] = 0.050781
02BE  // [941] = 0.085693
0414  // [942] = 0.127441
F904  // [943] = -0.218262
0A03  // [944] = 0.312866
FFAB  // [945] = -0.010376
0E82  // [946] = 0.453369
FA48  // [947] = -0.178711
09C4  // [948] = 0.305176
056D  // [949] = 0.169556
F3A0  // [950] = -0.386719
01FC  // [951] = 0.062012
FDBD  // [952] = -0.070679
FD0F  // [953] = -0.091919
02D1  // [954] = 0.088013
0C09  // [955] = 0.376099
0AE6  // [956] = 0.340576
FBDD  // [957] = -0.129272
F942  // [958] = -0.210693
0137  // [959] = 0.037964
FED8  // [960] = -0.036133
043E  // [961] = 0.132568
FBEC  // [962] = -0.127441
01CC  // [963] = 0.056152
E834  // [964] = -0.743652
FE6E  // [965] = -0.049072
01E6  // [966] = 0.059326
0174  // [967] = 0.045410
FF4F  // [968] = -0.021606
0145  // [969] = 0.039673
032F  // [970] = 0.099487
FFE6  // [971] = -0.003174
0343  // [972] = 0.101929
00C8  // [973] = 0.024414
ECEB  // [974] = -0.596313
025D  // [975] = 0.073853
055C  // [976] = 0.167480
0293  // [977] = 0.080444
FF8E  // [978] = -0.013916
FB87  // [979] = -0.139771
F87A  // [980] = -0.235107
EBF8  // [981] = -0.625977
045C  // [982] = 0.136230
FD7E  // [983] = -0.078369
FD88  // [984] = -0.077148
0092  // [985] = 0.017822
001B  // [986] = 0.003296
0406  // [987] = 0.125732
01FB  // [988] = 0.061890
FC88  // [989] = -0.108398
01EE  // [990] = 0.060303
0234  // [991] = 0.068848
0064  // [992] = 0.012207
FBBA  // [993] = -0.133545
01A4  // [994] = 0.051270
0B45  // [995] = 0.352173
F66B  // [996] = -0.299438
F60D  // [997] = -0.310913
0490  // [998] = 0.142578
E4FE  // [999] = -0.843994
F05F  // [1000] = -0.488403
00F5  // [1001] = 0.029907
ECDE  // [1002] = -0.597900
F990  // [1003] = -0.201172
03A8  // [1004] = 0.114258
02E7  // [1005] = 0.090698
047D  // [1006] = 0.140259
FB14  // [1007] = -0.153809
0129  // [1008] = 0.036255
FA15  // [1009] = -0.184937
011E  // [1010] = 0.034912
FB8B  // [1011] = -0.139282
0478  // [1012] = 0.139648
02A8  // [1013] = 0.083008
FFA4  // [1014] = -0.011230
0068  // [1015] = 0.012695
004C  // [1016] = 0.009277
F92D  // [1017] = -0.213257
02E2  // [1018] = 0.090088
0510  // [1019] = 0.158203
041B  // [1020] = 0.128296
FF10  // [1021] = -0.029297
F7B6  // [1022] = -0.259033
FE7E  // [1023] = -0.047119
