// Parameter: fc2.bias
// Shape: [16]
// Format: QS2_13 (16-bit signed, 2 integer bits, 13 fractional bits)
// Range: [-4.000000, 3.999878], Resolution: 7.999878
// Total values: 16
//
0B99  // [0] = 0.362427
FC95  // [1] = -0.106812
050C  // [2] = 0.157715
FC14  // [3] = -0.122559
FA27  // [4] = -0.182739
045A  // [5] = 0.135986
F85E  // [6] = -0.238525
FCAE  // [7] = -0.103760
FBAF  // [8] = -0.134888
F2F4  // [9] = -0.407715
0607  // [10] = 0.188354
F970  // [11] = -0.205078
0574  // [12] = 0.170410
0027  // [13] = 0.004761
FB53  // [14] = -0.146118
04D2  // [15] = 0.150635
