// Parameter: fc_out.weight
// Shape: [2, 16]
// Format: QS2_13 (16-bit signed, 2 integer bits, 13 fractional bits)
// Range: [-4.000000, 3.999878], Resolution: 7.999878
// Total values: 32
//
05FF  // [0] = 0.187378
FDE3  // [1] = -0.066040
FD6F  // [2] = -0.080200
FD65  // [3] = -0.081421
EDD2  // [4] = -0.568115
03EB  // [5] = 0.122437
EF21  // [6] = -0.527222
F4FC  // [7] = -0.344238
F565  // [8] = -0.331421
F1F7  // [9] = -0.438599
00BC  // [10] = 0.022949
F797  // [11] = -0.262817
03B0  // [12] = 0.115234
0940  // [13] = 0.289062
FBBE  // [14] = -0.133057
0439  // [15] = 0.131958
04EF  // [16] = 0.154175
FE90  // [17] = -0.044922
084F  // [18] = 0.259644
EBA3  // [19] = -0.636353
FD22  // [20] = -0.089600
0595  // [21] = 0.174438
F9A2  // [22] = -0.198975
F647  // [23] = -0.303833
F0DB  // [24] = -0.473267
F673  // [25] = -0.298462
0115  // [26] = 0.033813
ED79  // [27] = -0.578979
0223  // [28] = 0.066772
028F  // [29] = 0.079956
F590  // [30] = -0.326172
0376  // [31] = 0.108154
