// Parameter: fc_out.weight
// Shape: [2, 16]
// Format: QS2_13 (16-bit signed, 2 integer bits, 13 fractional bits)
// Range: [-4.000000, 3.999878], Resolution: 7.999878
// Total values: 32
//
010B  // [0] = 0.032593
F938  // [1] = -0.211914
EFC6  // [2] = -0.507080
FDC5  // [3] = -0.069702
0095  // [4] = 0.018188
02FB  // [5] = 0.093140
0020  // [6] = 0.003906
F016  // [7] = -0.497314
0698  // [8] = 0.206055
F012  // [9] = -0.497803
EC31  // [10] = -0.619019
EF41  // [11] = -0.523315
FF15  // [12] = -0.028687
07B1  // [13] = 0.240356
048B  // [14] = 0.141968
FE59  // [15] = -0.051636
0134  // [16] = 0.037598
EB0A  // [17] = -0.655029
ED06  // [18] = -0.593018
0742  // [19] = 0.226807
FF12  // [20] = -0.029053
052D  // [21] = 0.161743
FD1D  // [22] = -0.090210
F448  // [23] = -0.366211
FF17  // [24] = -0.028442
F27C  // [25] = -0.422363
F6D6  // [26] = -0.286377
EE5D  // [27] = -0.551147
FE74  // [28] = -0.048340
03BF  // [29] = 0.117065
025F  // [30] = 0.074097
FD7D  // [31] = -0.078491
