// Parameter: fc1.weight
// Shape: [16, 4]
// Format: QS2_13 (16-bit signed, 2 integer bits, 13 fractional bits)
// Range: [-4.000000, 3.999878], Resolution: 7.999878
// Total values: 64
//
F3FD  // [0] = -0.375366
0386  // [1] = 0.110107
2748  // [2] = 1.227539
15AC  // [3] = 0.677246
0EBC  // [4] = 0.460449
19D3  // [5] = 0.807007
4DEA  // [6] = 2.434814
13A5  // [7] = 0.613892
028A  // [8] = 0.079346
0151  // [9] = 0.041138
F499  // [10] = -0.356323
EFF4  // [11] = -0.501465
F88B  // [12] = -0.233032
0108  // [13] = 0.032227
1D54  // [14] = 0.916504
0B20  // [15] = 0.347656
09EB  // [16] = 0.309937
FB12  // [17] = -0.154053
F03A  // [18] = -0.492920
F175  // [19] = -0.454468
EA77  // [20] = -0.672974
F386  // [21] = -0.389893
081D  // [22] = 0.253540
FA50  // [23] = -0.177734
319D  // [24] = 1.550415
1A44  // [25] = 0.820801
3D29  // [26] = 1.911255
135B  // [27] = 0.604858
FECB  // [28] = -0.037720
11E4  // [29] = 0.559082
0BBD  // [30] = 0.366821
F312  // [31] = -0.404053
1813  // [32] = 0.752319
0E07  // [33] = 0.438354
2323  // [34] = 1.098022
0B57  // [35] = 0.354370
FAD4  // [36] = -0.161621
0229  // [37] = 0.067505
03AF  // [38] = 0.115112
08D7  // [39] = 0.276245
05E6  // [40] = 0.184326
FD84  // [41] = -0.077637
1F7C  // [42] = 0.983887
F42C  // [43] = -0.369629
E2E7  // [44] = -0.909302
0681  // [45] = 0.203247
4DE0  // [46] = 2.433594
0AE9  // [47] = 0.340942
1771  // [48] = 0.732544
F790  // [49] = -0.263672
D3AC  // [50] = -1.385254
F62C  // [51] = -0.307129
FA2E  // [52] = -0.181885
086C  // [53] = 0.263184
158D  // [54] = 0.673462
08EB  // [55] = 0.278687
2032  // [56] = 1.006104
0EA5  // [57] = 0.457642
DB32  // [58] = -1.150146
0856  // [59] = 0.260498
19F9  // [60] = 0.811646
FE4B  // [61] = -0.053345
F167  // [62] = -0.456177
FC31  // [63] = -0.119019
