// Parameter: fc1.weight
// Shape: [16, 4]
// Format: QS2_13 (16-bit signed, 2 integer bits, 13 fractional bits)
// Range: [-4.000000, 3.999878], Resolution: 7.999878
// Total values: 64
//
1646  // [0] = 0.696045
0A29  // [1] = 0.317505
399D  // [2] = 1.800415
09D7  // [3] = 0.307495
04AE  // [4] = 0.146240
0998  // [5] = 0.299805
19C8  // [6] = 0.805664
0778  // [7] = 0.233398
FEC1  // [8] = -0.038940
004E  // [9] = 0.009521
C2C6  // [10] = -1.913330
FABC  // [11] = -0.164551
20C1  // [12] = 1.023560
19E9  // [13] = 0.809692
3970  // [14] = 1.794922
1368  // [15] = 0.606445
18F4  // [16] = 0.779785
0715  // [17] = 0.221313
DB5A  // [18] = -1.145264
008E  // [19] = 0.017334
E8BB  // [20] = -0.727173
E7AA  // [21] = -0.760498
CC66  // [22] = -1.612549
EE35  // [23] = -0.556030
0EC7  // [24] = 0.461792
FA53  // [25] = -0.177368
F07F  // [26] = -0.484497
04A4  // [27] = 0.145020
1EC4  // [28] = 0.961426
09BD  // [29] = 0.304321
E32E  // [30] = -0.900635
FA39  // [31] = -0.180542
12D2  // [32] = 0.588135
00F2  // [33] = 0.029541
D486  // [34] = -1.358643
F8D9  // [35] = -0.223511
1B71  // [36] = 0.857544
094D  // [37] = 0.290649
1ECA  // [38] = 0.962158
0731  // [39] = 0.224731
08FD  // [40] = 0.280884
0700  // [41] = 0.218750
2F1E  // [42] = 1.472412
09A3  // [43] = 0.301147
0389  // [44] = 0.110474
FE00  // [45] = -0.062500
EC86  // [46] = -0.608643
FD1E  // [47] = -0.090088
E136  // [48] = -0.962158
E497  // [49] = -0.856567
B8F6  // [50] = -2.219971
EA0F  // [51] = -0.685669
F6C1  // [52] = -0.288940
0385  // [53] = 0.109985
C3DF  // [54] = -1.879028
FD53  // [55] = -0.083618
2486  // [56] = 1.141357
FB0C  // [57] = -0.154785
0A63  // [58] = 0.324585
1274  // [59] = 0.576660
0355  // [60] = 0.104126
1537  // [61] = 0.662964
3688  // [62] = 1.704102
10AB  // [63] = 0.520874
