// Parameter: fc1.bias
// Shape: [16]
// Format: QS2_13 (16-bit signed, 2 integer bits, 13 fractional bits)
// Range: [-4.000000, 3.999878], Resolution: 7.999878
// Total values: 16
//
147D  // [0] = 0.640259
1380  // [1] = 0.609375
FE69  // [2] = -0.049683
1041  // [3] = 0.507935
F3BC  // [4] = -0.383301
2A97  // [5] = 1.330933
061C  // [6] = 0.190918
F64A  // [7] = -0.303467
F755  // [8] = -0.270874
11AE  // [9] = 0.552490
0209  // [10] = 0.063599
2718  // [11] = 1.221680
2B16  // [12] = 1.346436
015F  // [13] = 0.042847
FD28  // [14] = -0.088867
266C  // [15] = 1.200684
