// Parameter: fc1.bias
// Shape: [16]
// Format: QS2_13 (16-bit signed, 2 integer bits, 13 fractional bits)
// Range: [-4.000000, 3.999878], Resolution: 7.999878
// Total values: 16
//
2E38  // [0] = 1.444336
FCA0  // [1] = -0.105469
2722  // [2] = 1.222900
19F0  // [3] = 0.810547
19E9  // [4] = 0.809692
2321  // [5] = 1.097778
1E9B  // [6] = 0.956421
FED2  // [7] = -0.036865
0A5F  // [8] = 0.324097
20B5  // [9] = 1.022095
02A4  // [10] = 0.082520
FAB0  // [11] = -0.166016
1BF5  // [12] = 0.873657
1990  // [13] = 0.798828
F53E  // [14] = -0.336182
2198  // [15] = 1.049805
