// Parameter: fc2.weight
// Shape: [4, 16]
// Format: QS2_13 (16-bit signed, 2 integer bits, 13 fractional bits)
// Range: [-4.000000, 3.999878], Resolution: 7.999878
// Total values: 64
//
F3B7  // [0] = -0.383911
D8DC  // [1] = -1.223145
30A8  // [2] = 1.520508
E6DE  // [3] = -0.785400
08C5  // [4] = 0.274048
D2CA  // [5] = -1.412842
01CB  // [6] = 0.056030
1A9F  // [7] = 0.831909
1B28  // [8] = 0.848633
EEE3  // [9] = -0.534790
42DB  // [10] = 2.089233
F0EC  // [11] = -0.471191
D773  // [12] = -1.267212
2C23  // [13] = 1.379272
01B9  // [14] = 0.053833
EAE5  // [15] = -0.659546
EC44  // [16] = -0.616699
EA6E  // [17] = -0.674072
2FA3  // [18] = 1.488647
EF08  // [19] = -0.530273
087D  // [20] = 0.265259
DEE7  // [21] = -1.034302
F849  // [22] = -0.241089
0C56  // [23] = 0.385498
19B7  // [24] = 0.803589
E964  // [25] = -0.706543
3FB3  // [26] = 1.990601
E6D8  // [27] = -0.786133
E56C  // [28] = -0.830566
1B80  // [29] = 0.859375
FDEA  // [30] = -0.065186
F291  // [31] = -0.419800
186F  // [32] = 0.763550
0E25  // [33] = 0.442017
C7ED  // [34] = -1.752319
04E9  // [35] = 0.153442
D15A  // [36] = -1.457764
2035  // [37] = 1.006470
03D4  // [38] = 0.119629
1D80  // [39] = 0.921875
029E  // [40] = 0.081787
1734  // [41] = 0.725098
E0A4  // [42] = -0.979980
2BA9  // [43] = 1.364380
251A  // [44] = 1.159424
2A99  // [45] = 1.331177
EF8F  // [46] = -0.513794
09A5  // [47] = 0.301392
E67E  // [48] = -0.797119
E958  // [49] = -0.708008
3CD9  // [50] = 1.901489
E955  // [51] = -0.708374
1BBF  // [52] = 0.867065
E103  // [53] = -0.968384
F96A  // [54] = -0.205811
FE7A  // [55] = -0.047607
15D1  // [56] = 0.681763
EE71  // [57] = -0.548706
42EB  // [58] = 2.091187
D7A8  // [59] = -1.260742
E332  // [60] = -0.900146
FC93  // [61] = -0.107056
023D  // [62] = 0.069946
EE39  // [63] = -0.555542
