// Parameter: fc2.weight
// Shape: [4, 16]
// Format: QS2_13 (16-bit signed, 2 integer bits, 13 fractional bits)
// Range: [-4.000000, 3.999878], Resolution: 7.999878
// Total values: 64
//
F3C2  // [0] = -0.382568
3F60  // [1] = 1.980469
EA6B  // [2] = -0.674438
F103  // [3] = -0.468384
EB5C  // [4] = -0.645020
CF87  // [5] = -1.514771
D85E  // [6] = -1.238525
00DB  // [7] = 0.026733
1467  // [8] = 0.637573
E536  // [9] = -0.837158
F84E  // [10] = -0.240479
2A06  // [11] = 1.313232
070D  // [12] = 0.220337
C6C0  // [13] = -1.789062
25D4  // [14] = 1.182129
CE1C  // [15] = -1.559082
0B4F  // [16] = 0.353394
E241  // [17] = -0.929565
0761  // [18] = 0.230591
0F2D  // [19] = 0.474243
FC83  // [20] = -0.109009
2033  // [21] = 1.006226
2D9E  // [22] = 1.425537
FFDD  // [23] = -0.004272
04B7  // [24] = 0.147339
2428  // [25] = 1.129883
FA6B  // [26] = -0.174438
0466  // [27] = 0.137451
DF6E  // [28] = -1.017822
334F  // [29] = 1.603394
D2A0  // [30] = -1.417969
1481  // [31] = 0.640747
EBF6  // [32] = -0.626221
3D5C  // [33] = 1.917480
F439  // [34] = -0.368042
E854  // [35] = -0.739746
EB3E  // [36] = -0.648682
DA1D  // [37] = -1.183960
D5F5  // [38] = -1.313843
F92D  // [39] = -0.213257
192D  // [40] = 0.786743
DFB5  // [41] = -1.009155
FB43  // [42] = -0.148071
3711  // [43] = 1.720825
F3DB  // [44] = -0.379517
D354  // [45] = -1.395996
1077  // [46] = 0.514526
E407  // [47] = -0.874146
0DDC  // [48] = 0.433105
C84E  // [49] = -1.740479
137A  // [50] = 0.608643
1237  // [51] = 0.569214
1683  // [52] = 0.703491
2611  // [53] = 1.189575
1E9D  // [54] = 0.956665
0473  // [55] = 0.139038
D53D  // [56] = -1.336304
15B6  // [57] = 0.678467
0603  // [58] = 0.187866
CE86  // [59] = -1.546143
103C  // [60] = 0.507324
2F45  // [61] = 1.477173
EEA2  // [62] = -0.542725
1242  // [63] = 0.570557
