// Parameter: fc_out.weight
// Shape: [2, 4]
// Format: QS2_13 (16-bit signed, 2 integer bits, 13 fractional bits)
// Range: [-4.000000, 3.999878], Resolution: 7.999878
// Total values: 8
//
D78F  // [0] = -1.263794
E160  // [1] = -0.957031
1A87  // [2] = 0.828979
DA0C  // [3] = -1.186035
CC6F  // [4] = -1.611450
D738  // [5] = -1.274414
09F7  // [6] = 0.311401
E62C  // [7] = -0.807129
