// Parameter: fc1.weight
// Shape: [32, 4]
// Format: QS3_12 (16-bit signed, 3 integer bits, 12 fractional bits)
// Range: [-8.000000, 7.999756], Resolution: 15.999756
// Total values: 128
//
01D6  // [0] = 0.114746
FFAA  // [1] = -0.020996
00F5  // [2] = 0.059814
FFBF  // [3] = -0.015869
F606  // [4] = -0.623535
FC3B  // [5] = -0.235596
F31D  // [6] = -0.805420
FD15  // [7] = -0.182373
0253  // [8] = 0.145264
012C  // [9] = 0.073242
19D7  // [10] = 1.614990
0388  // [11] = 0.220703
037C  // [12] = 0.217773
0254  // [13] = 0.145508
0625  // [14] = 0.384033
01F7  // [15] = 0.122803
0D34  // [16] = 0.825195
05FD  // [17] = 0.374268
0E61  // [18] = 0.898682
0441  // [19] = 0.265869
0045  // [20] = 0.016846
F92C  // [21] = -0.426758
031A  // [22] = 0.193848
029B  // [23] = 0.162842
07F4  // [24] = 0.497070
0852  // [25] = 0.520020
1AD4  // [26] = 1.676758
06A1  // [27] = 0.414307
0212  // [28] = 0.129395
01AC  // [29] = 0.104492
1E87  // [30] = 1.907959
052A  // [31] = 0.322754
F1D1  // [32] = -0.886475
F611  // [33] = -0.620850
E692  // [34] = -1.589355
F845  // [35] = -0.483154
0D6E  // [36] = 0.839355
07B2  // [37] = 0.480957
1B8C  // [38] = 1.721680
067B  // [39] = 0.405029
F9C9  // [40] = -0.388428
FF26  // [41] = -0.053223
142A  // [42] = 1.260254
0259  // [43] = 0.146729
039D  // [44] = 0.225830
00E9  // [45] = 0.056885
10A3  // [46] = 1.039795
0322  // [47] = 0.195801
00E3  // [48] = 0.055420
00AB  // [49] = 0.041748
1C1D  // [50] = 1.757080
0281  // [51] = 0.156494
FF56  // [52] = -0.041504
02A5  // [53] = 0.165283
FF18  // [54] = -0.056641
FAF0  // [55] = -0.316406
FB37  // [56] = -0.299072
0165  // [57] = 0.087158
044F  // [58] = 0.269287
032E  // [59] = 0.198730
00FE  // [60] = 0.062012
FFD0  // [61] = -0.011719
0443  // [62] = 0.266357
00CF  // [63] = 0.050537
0998  // [64] = 0.599609
074E  // [65] = 0.456543
0D35  // [66] = 0.825439
0588  // [67] = 0.345703
0765  // [68] = 0.462158
072E  // [69] = 0.448730
1172  // [70] = 1.090332
0614  // [71] = 0.379883
06D6  // [72] = 0.427246
0114  // [73] = 0.067383
F68E  // [74] = -0.590332
FECE  // [75] = -0.074707
FDCA  // [76] = -0.138184
00D5  // [77] = 0.052002
1C2A  // [78] = 1.760254
044D  // [79] = 0.268799
FE6F  // [80] = -0.097900
FDB7  // [81] = -0.142822
F872  // [82] = -0.472168
FE32  // [83] = -0.112793
0909  // [84] = 0.564697
06BA  // [85] = 0.420410
0858  // [86] = 0.521484
03B7  // [87] = 0.232178
030D  // [88] = 0.190674
0153  // [89] = 0.082764
1257  // [90] = 1.146240
02BD  // [91] = 0.171143
008C  // [92] = 0.034180
00AF  // [93] = 0.042725
FA02  // [94] = -0.374512
00AE  // [95] = 0.042480
23DD  // [96] = 2.241455
025E  // [97] = 0.147949
FE87  // [98] = -0.092041
FDBB  // [99] = -0.141846
061B  // [100] = 0.381592
043B  // [101] = 0.264404
0BD9  // [102] = 0.740479
034F  // [103] = 0.206787
081D  // [104] = 0.507080
05B4  // [105] = 0.356445
0A35  // [106] = 0.637939
03A3  // [107] = 0.227295
F8D9  // [108] = -0.447021
FE9C  // [109] = -0.086914
FB0A  // [110] = -0.310059
FF26  // [111] = -0.053223
0466  // [112] = 0.274902
005D  // [113] = 0.022705
EF13  // [114] = -1.057861
FCED  // [115] = -0.192139
023C  // [116] = 0.139648
0222  // [117] = 0.133301
0A20  // [118] = 0.632812
033A  // [119] = 0.201660
F81F  // [120] = -0.492432
FC49  // [121] = -0.232178
F769  // [122] = -0.536865
FDBC  // [123] = -0.141602
06A4  // [124] = 0.415039
053C  // [125] = 0.327148
0F99  // [126] = 0.974854
0404  // [127] = 0.250977
