// Parameter: fc1.weight
// Shape: [32, 4]
// Format: QS3_12 (16-bit signed, 3 integer bits, 12 fractional bits)
// Range: [-8.000000, 7.999756], Resolution: 15.999756
// Total values: 128
//
FDFE  // [0] = -0.125488
F9FE  // [1] = -0.375488
D0B0  // [2] = -2.957031
F3AB  // [3] = -0.770752
E2D7  // [4] = -1.822510
F58F  // [5] = -0.652588
3B52  // [6] = 3.707520
1A75  // [7] = 1.653564
0357  // [8] = 0.208740
1524  // [9] = 1.321289
2040  // [10] = 2.015625
FB76  // [11] = -0.283691
FC12  // [12] = -0.245605
F976  // [13] = -0.408691
CAF7  // [14] = -3.314697
F428  // [15] = -0.740234
03B8  // [16] = 0.232422
1B01  // [17] = 1.687744
0909  // [18] = 0.564697
EE3A  // [19] = -1.110840
FE9E  // [20] = -0.086426
02D8  // [21] = 0.177734
19BE  // [22] = 1.608887
061B  // [23] = 0.381592
0089  // [24] = 0.033447
FB97  // [25] = -0.275635
EF77  // [26] = -1.033447
F8F2  // [27] = -0.440918
19C5  // [28] = 1.610596
FAD9  // [29] = -0.322021
D984  // [30] = -2.405273
F95D  // [31] = -0.414795
FAC4  // [32] = -0.327148
FD62  // [33] = -0.163574
0E75  // [34] = 0.903564
FE89  // [35] = -0.091553
F2E1  // [36] = -0.820068
F751  // [37] = -0.542725
165C  // [38] = 1.397461
0940  // [39] = 0.578125
2435  // [40] = 2.262939
00BB  // [41] = 0.045654
CAC0  // [42] = -3.328125
F60C  // [43] = -0.622070
0471  // [44] = 0.277588
08F8  // [45] = 0.560547
3195  // [46] = 3.098877
0F31  // [47] = 0.949463
FECF  // [48] = -0.074463
FE10  // [49] = -0.121094
EBE1  // [50] = -1.257568
FB7C  // [51] = -0.282227
02BB  // [52] = 0.170654
FA03  // [53] = -0.374268
C2D5  // [54] = -3.822998
F377  // [55] = -0.783447
F4D7  // [56] = -0.697510
F8E2  // [57] = -0.444824
CA8E  // [58] = -3.340332
EE73  // [59] = -1.096924
F4F4  // [60] = -0.690430
F655  // [61] = -0.604248
F28D  // [62] = -0.840576
FAE2  // [63] = -0.319824
23ED  // [64] = 2.245361
002F  // [65] = 0.011475
EA9D  // [66] = -1.336670
FBFF  // [67] = -0.250244
FB57  // [68] = -0.291260
F702  // [69] = -0.562012
BC59  // [70] = -4.228271
EEF6  // [71] = -1.064941
0581  // [72] = 0.343994
08DF  // [73] = 0.554443
4B24  // [74] = 4.696289
10E2  // [75] = 1.055176
F659  // [76] = -0.603271
FC17  // [77] = -0.244385
EAB0  // [78] = -1.332031
FCA8  // [79] = -0.208984
0F29  // [80] = 0.947510
0A00  // [81] = 0.625000
1588  // [82] = 1.345703
FF5C  // [83] = -0.040039
0772  // [84] = 0.465332
F97F  // [85] = -0.406494
C8E4  // [86] = -3.444336
F459  // [87] = -0.728271
0FE5  // [88] = 0.993408
1DC7  // [89] = 1.861084
5F15  // [90] = 5.942627
0C8C  // [91] = 0.784180
13E3  // [92] = 1.242920
167E  // [93] = 1.405762
3A1E  // [94] = 3.632324
0467  // [95] = 0.275146
1F56  // [96] = 1.958496
139D  // [97] = 1.225830
3658  // [98] = 3.396484
0C9E  // [99] = 0.788574
EFF1  // [100] = -1.003662
0432  // [101] = 0.262207
0408  // [102] = 0.251953
FCF8  // [103] = -0.189453
04DC  // [104] = 0.303711
F97F  // [105] = -0.406494
CEF5  // [106] = -3.065186
EEE2  // [107] = -1.069824
1F06  // [108] = 1.938965
074F  // [109] = 0.456787
D886  // [110] = -2.467285
F075  // [111] = -0.971436
2E6C  // [112] = 2.901367
0ED0  // [113] = 0.925781
F195  // [114] = -0.901123
FB52  // [115] = -0.292480
FB8E  // [116] = -0.277832
F77B  // [117] = -0.532471
B62B  // [118] = -4.614502
EE86  // [119] = -1.092285
00C8  // [120] = 0.048828
F61D  // [121] = -0.617920
D402  // [122] = -2.749512
F26B  // [123] = -0.848877
07EA  // [124] = 0.494629
FFB0  // [125] = -0.019531
F116  // [126] = -0.932129
FA5D  // [127] = -0.352295
