// Parameter: fc1.bias
// Shape: [32]
// Format: QS3_12 (16-bit signed, 3 integer bits, 12 fractional bits)
// Range: [-8.000000, 7.999756], Resolution: 15.999756
// Total values: 32
//
068D  // [0] = 0.409424
11E4  // [1] = 1.118164
2068  // [2] = 2.025391
2B12  // [3] = 2.691895
0802  // [4] = 0.500488
296B  // [5] = 2.588623
2A14  // [6] = 2.629883
F827  // [7] = -0.490479
14A7  // [8] = 1.290771
025D  // [9] = 0.147705
00B1  // [10] = 0.043213
06C0  // [11] = 0.421875
3129  // [12] = 3.072510
FD0B  // [13] = -0.184814
FCD0  // [14] = -0.199219
0220  // [15] = 0.132812
FAEF  // [16] = -0.316650
0251  // [17] = 0.144775
3C1C  // [18] = 3.756836
F5E1  // [19] = -0.632568
0015  // [20] = 0.005127
FF1F  // [21] = -0.054932
205E  // [22] = 2.022949
139A  // [23] = 1.225098
040D  // [24] = 0.253174
0CCD  // [25] = 0.800049
0450  // [26] = 0.269531
02E4  // [27] = 0.180664
0D97  // [28] = 0.849365
029F  // [29] = 0.163818
00D2  // [30] = 0.051270
105F  // [31] = 1.023193
