// Parameter: fc1.weight
// Shape: [32, 4]
// Format: QS3_12 (16-bit signed, 3 integer bits, 12 fractional bits)
// Range: [-8.000000, 7.999756], Resolution: 15.999756
// Total values: 128
//
2D46  // [0] = 2.829590
08FD  // [1] = 0.561768
0202  // [2] = 0.125488
04E9  // [3] = 0.306885
0BEB  // [4] = 0.744873
FACF  // [5] = -0.324463
CDB6  // [6] = -3.143066
F198  // [7] = -0.900391
0C4D  // [8] = 0.768799
0779  // [9] = 0.467041
389F  // [10] = 3.538818
09A0  // [11] = 0.601562
F522  // [12] = -0.679199
F875  // [13] = -0.471436
41EE  // [14] = 4.120605
1312  // [15] = 1.191895
0049  // [16] = 0.017822
00BB  // [17] = 0.045654
F64D  // [18] = -0.606201
FF94  // [19] = -0.026367
0072  // [20] = 0.027832
00BB  // [21] = 0.045654
026F  // [22] = 0.152100
00C1  // [23] = 0.047119
1B45  // [24] = 1.704346
03A8  // [25] = 0.228516
D6F3  // [26] = -2.565674
F40F  // [27] = -0.746338
FFC1  // [28] = -0.015381
F941  // [29] = -0.421631
DA61  // [30] = -2.351318
F670  // [31] = -0.597656
0943  // [32] = 0.578857
F790  // [33] = -0.527344
E2B7  // [34] = -1.830322
047E  // [35] = 0.280762
098C  // [36] = 0.596680
01A8  // [37] = 0.103516
E391  // [38] = -1.777100
F5E6  // [39] = -0.631348
FD62  // [40] = -0.163574
FAB8  // [41] = -0.330078
ED91  // [42] = -1.152100
FBC4  // [43] = -0.264648
FF96  // [44] = -0.025879
FBF9  // [45] = -0.251709
EC5C  // [46] = -1.227539
FBB1  // [47] = -0.269287
FFD3  // [48] = -0.010986
00EE  // [49] = 0.058105
019D  // [50] = 0.100830
00BF  // [51] = 0.046631
0115  // [52] = 0.067627
FBAB  // [53] = -0.270752
EDB2  // [54] = -1.144043
F952  // [55] = -0.417480
01D1  // [56] = 0.113525
F68F  // [57] = -0.590088
C7EA  // [58] = -3.505371
F475  // [59] = -0.721436
1A0D  // [60] = 1.628174
1224  // [61] = 1.133789
1AD5  // [62] = 1.677002
0B6B  // [63] = 0.713623
1258  // [64] = 1.146484
0A1D  // [65] = 0.632080
101D  // [66] = 1.007080
08A0  // [67] = 0.539062
0920  // [68] = 0.570312
13B3  // [69] = 1.231201
3FE8  // [70] = 3.994141
1063  // [71] = 1.024170
1A44  // [72] = 1.641602
0F86  // [73] = 0.970215
E521  // [74] = -1.679443
F0FA  // [75] = -0.938965
FD5E  // [76] = -0.164551
F8FC  // [77] = -0.438477
D8FC  // [78] = -2.438477
F998  // [79] = -0.400391
FE54  // [80] = -0.104492
FA47  // [81] = -0.357666
F311  // [82] = -0.808350
FA20  // [83] = -0.367188
F374  // [84] = -0.784180
F597  // [85] = -0.650635
D9F7  // [86] = -2.377197
F7C9  // [87] = -0.513428
28CE  // [88] = 2.550293
0261  // [89] = 0.148682
D122  // [90] = -2.929199
FE44  // [91] = -0.108398
0DB4  // [92] = 0.856445
0A99  // [93] = 0.662354
F9BA  // [94] = -0.392090
F975  // [95] = -0.408936
FF6A  // [96] = -0.036621
0209  // [97] = 0.127197
10F5  // [98] = 1.059814
01B9  // [99] = 0.107666
FF85  // [100] = -0.030029
FB8C  // [101] = -0.278320
CCDE  // [102] = -3.195801
F2F7  // [103] = -0.814697
EE8D  // [104] = -1.090576
017D  // [105] = 0.093018
61C1  // [106] = 6.109619
0EA4  // [107] = 0.915039
FE7B  // [108] = -0.094971
06B4  // [109] = 0.418945
3978  // [110] = 3.591797
069E  // [111] = 0.413574
01FD  // [112] = 0.124268
FA6A  // [113] = -0.349121
E98E  // [114] = -1.402832
FB09  // [115] = -0.310303
0167  // [116] = 0.087646
F859  // [117] = -0.478271
C7E6  // [118] = -3.506348
EBED  // [119] = -1.254639
EC2E  // [120] = -1.238770
E17B  // [121] = -1.907471
F196  // [122] = -0.900879
0C0A  // [123] = 0.752441
0243  // [124] = 0.141357
F69F  // [125] = -0.586182
D0C4  // [126] = -2.952148
F8D2  // [127] = -0.448730
