// Parameter: fc1.bias
// Shape: [32]
// Format: QS3_12 (16-bit signed, 3 integer bits, 12 fractional bits)
// Range: [-8.000000, 7.999756], Resolution: 15.999756
// Total values: 32
//
2EE0  // [0] = 2.929688
0711  // [1] = 0.441650
06D3  // [2] = 0.426514
0776  // [3] = 0.466309
31EB  // [4] = 3.119873
35A8  // [5] = 3.353516
FF84  // [6] = -0.030273
012F  // [7] = 0.073975
0177  // [8] = 0.091553
053D  // [9] = 0.327393
1BFA  // [10] = 1.748535
3302  // [11] = 3.187988
368D  // [12] = 3.409424
1341  // [13] = 1.203369
0103  // [14] = 0.063232
1A6B  // [15] = 1.651123
F2BF  // [16] = -0.828369
220C  // [17] = 2.127930
02AD  // [18] = 0.167236
03EA  // [19] = 0.244629
1949  // [20] = 1.580322
324E  // [21] = 3.144043
24B3  // [22] = 2.293701
02F0  // [23] = 0.183594
1515  // [24] = 1.317627
0086  // [25] = 0.032715
0060  // [26] = 0.023438
2EF6  // [27] = 2.935059
FDC6  // [28] = -0.139160
03D9  // [29] = 0.240479
096D  // [30] = 0.589111
02F9  // [31] = 0.185791
