// Parameter: fc1.bias
// Shape: [32]
// Format: QS3_12 (16-bit signed, 3 integer bits, 12 fractional bits)
// Range: [-8.000000, 7.999756], Resolution: 15.999756
// Total values: 32
//
1427  // [0] = 1.259521
127F  // [1] = 1.156006
001C  // [2] = 0.006836
17DE  // [3] = 1.491699
0CFE  // [4] = 0.812012
0011  // [5] = 0.004150
FABC  // [6] = -0.329102
0164  // [7] = 0.086914
12B4  // [8] = 1.168945
F6BE  // [9] = -0.578613
FC82  // [10] = -0.218262
FB3C  // [11] = -0.297852
FF9A  // [12] = -0.024902
FF23  // [13] = -0.053955
FE06  // [14] = -0.123535
1CBD  // [15] = 1.796143
F855  // [16] = -0.479248
FC1A  // [17] = -0.243652
FB8F  // [18] = -0.277588
002B  // [19] = 0.010498
09EA  // [20] = 0.619629
F9A8  // [21] = -0.396484
FB18  // [22] = -0.306641
1C5E  // [23] = 1.772949
FFC7  // [24] = -0.013916
16BA  // [25] = 1.420410
FA01  // [26] = -0.374756
0C60  // [27] = 0.773438
FC28  // [28] = -0.240234
247E  // [29] = 2.280762
0614  // [30] = 0.379883
1EC7  // [31] = 1.923584
