// Parameter: fc2.bias
// Shape: [8]
// Format: QS3_12 (16-bit signed, 3 integer bits, 12 fractional bits)
// Range: [-8.000000, 7.999756], Resolution: 15.999756
// Total values: 8
//
5128  // [0] = 5.072266
FEF8  // [1] = -0.064453
620A  // [2] = 6.127441
9D4E  // [3] = -6.168457
6254  // [4] = 6.145508
52BE  // [5] = 5.171387
A44D  // [6] = -5.731201
973C  // [7] = -6.547852
