// Parameter: fc2.weight
// Shape: [8, 32]
// Format: QS3_12 (16-bit signed, 3 integer bits, 12 fractional bits)
// Range: [-8.000000, 7.999756], Resolution: 15.999756
// Total values: 256
//
E4FD  // [0] = -1.688232
FE17  // [1] = -0.119385
054C  // [2] = 0.331055
0A49  // [3] = 0.642822
FDE8  // [4] = -0.130859
1557  // [5] = 1.333740
1007  // [6] = 1.001709
FFEE  // [7] = -0.004395
01FC  // [8] = 0.124023
FA6A  // [9] = -0.349121
E2D7  // [10] = -1.822510
006D  // [11] = 0.026611
04E5  // [12] = 0.305908
DED7  // [13] = -2.072510
F2C3  // [14] = -0.827393
FC6E  // [15] = -0.223145
0259  // [16] = 0.146729
E45C  // [17] = -1.727539
05E9  // [18] = 0.369385
FF61  // [19] = -0.038818
FDA8  // [20] = -0.146484
D257  // [21] = -2.853760
02B0  // [22] = 0.167969
0DD1  // [23] = 0.863525
002E  // [24] = 0.011230
FAE7  // [25] = -0.318604
D47D  // [26] = -2.719482
EE1A  // [27] = -1.118652
0423  // [28] = 0.258545
E06D  // [29] = -1.973389
E8EC  // [30] = -1.442383
095B  // [31] = 0.584717
E608  // [32] = -1.623047
0814  // [33] = 0.504883
FE8F  // [34] = -0.090088
FFD5  // [35] = -0.010498
FF96  // [36] = -0.025879
0A25  // [37] = 0.634033
0226  // [38] = 0.134277
0E4F  // [39] = 0.894287
FC8C  // [40] = -0.215820
056C  // [41] = 0.338867
FA12  // [42] = -0.370605
02EE  // [43] = 0.183105
E6D2  // [44] = -1.573730
098F  // [45] = 0.597412
F55E  // [46] = -0.664551
FDA3  // [47] = -0.147705
F3B8  // [48] = -0.767578
E9EA  // [49] = -1.380371
FE77  // [50] = -0.095947
0148  // [51] = 0.080078
FF7F  // [52] = -0.031494
F71B  // [53] = -0.555908
07F7  // [54] = 0.497803
02F3  // [55] = 0.184326
FF86  // [56] = -0.029785
FCED  // [57] = -0.192139
E2EE  // [58] = -1.816895
E556  // [59] = -1.666504
EE04  // [60] = -1.124023
E7D2  // [61] = -1.511230
0976  // [62] = 0.591309
0270  // [63] = 0.152344
F18D  // [64] = -0.903076
0E18  // [65] = 0.880859
015D  // [66] = 0.085205
0638  // [67] = 0.388672
FDC7  // [68] = -0.138916
1136  // [69] = 1.075684
1040  // [70] = 1.015625
016C  // [71] = 0.088867
01B9  // [72] = 0.107666
05C8  // [73] = 0.361328
E861  // [74] = -1.476318
FD8E  // [75] = -0.152832
0638  // [76] = 0.388672
E6B9  // [77] = -1.579834
FB7F  // [78] = -0.281494
0003  // [79] = 0.000732
F9BF  // [80] = -0.390869
EA9A  // [81] = -1.337402
0415  // [82] = 0.255127
FEDF  // [83] = -0.070557
FB90  // [84] = -0.277344
D944  // [85] = -2.420898
0A1D  // [86] = 0.632080
FFEC  // [87] = -0.004883
011E  // [88] = 0.069824
FE1E  // [89] = -0.117676
FEB8  // [90] = -0.080078
F4FF  // [91] = -0.687744
FC16  // [92] = -0.244629
EE0F  // [93] = -1.121338
F2DE  // [94] = -0.820801
0434  // [95] = 0.262695
0261  // [96] = 0.148682
0117  // [97] = 0.068115
01A2  // [98] = 0.102051
F760  // [99] = -0.539062
FE9F  // [100] = -0.086182
EC0B  // [101] = -1.247314
F0C2  // [102] = -0.952637
0070  // [103] = 0.027344
FB78  // [104] = -0.283203
FF62  // [105] = -0.038574
0942  // [106] = 0.578613
01E5  // [107] = 0.118408
F5BF  // [108] = -0.640869
1619  // [109] = 1.381104
FFC7  // [110] = -0.013916
FF2C  // [111] = -0.051758
FFA0  // [112] = -0.023438
0296  // [113] = 0.161621
FC42  // [114] = -0.233887
01C3  // [115] = 0.110107
FFBD  // [116] = -0.016357
2067  // [117] = 2.025146
00B6  // [118] = 0.044434
0070  // [119] = 0.027344
003E  // [120] = 0.015137
FDC6  // [121] = -0.139160
FE02  // [122] = -0.124512
FAEB  // [123] = -0.317627
0075  // [124] = 0.028564
0370  // [125] = 0.214844
0B9A  // [126] = 0.725098
0382  // [127] = 0.219238
F2F0  // [128] = -0.816406
08B5  // [129] = 0.544189
FF3C  // [130] = -0.047852
063E  // [131] = 0.390137
FC7A  // [132] = -0.220215
0E15  // [133] = 0.880127
0E8C  // [134] = 0.909180
01C0  // [135] = 0.109375
03BC  // [136] = 0.233398
0468  // [137] = 0.275391
EFE8  // [138] = -1.005859
F840  // [139] = -0.484375
08E7  // [140] = 0.556396
EA29  // [141] = -1.364990
FE4E  // [142] = -0.105957
0161  // [143] = 0.086182
FED9  // [144] = -0.072021
EEF0  // [145] = -1.066406
029C  // [146] = 0.163086
FF6C  // [147] = -0.036133
FCE9  // [148] = -0.193115
E55C  // [149] = -1.665039
049A  // [150] = 0.287598
FEBB  // [151] = -0.079346
01E1  // [152] = 0.117432
FF6B  // [153] = -0.036377
0641  // [154] = 0.390869
0145  // [155] = 0.079346
0052  // [156] = 0.020020
F4A5  // [157] = -0.709717
F3E4  // [158] = -0.756836
0021  // [159] = 0.008057
F2B2  // [160] = -0.831543
EF71  // [161] = -1.034912
0370  // [162] = 0.214844
0B43  // [163] = 0.703857
027A  // [164] = 0.154785
160A  // [165] = 1.377441
11CF  // [166] = 1.113037
FC81  // [167] = -0.218506
056B  // [168] = 0.338623
F4B6  // [169] = -0.705566
F1A2  // [170] = -0.897949
0345  // [171] = 0.204346
076C  // [172] = 0.463867
DA3A  // [173] = -2.360840
FDE7  // [174] = -0.131104
FE5D  // [175] = -0.102295
0B5F  // [176] = 0.710693
F6A4  // [177] = -0.584961
04B4  // [178] = 0.293945
0143  // [179] = 0.078857
0390  // [180] = 0.222656
D44E  // [181] = -2.730957
F611  // [182] = -0.620850
0D68  // [183] = 0.837891
01CC  // [184] = 0.112305
FE5D  // [185] = -0.102295
E3B1  // [186] = -1.769287
FBD6  // [187] = -0.260254
1832  // [188] = 1.512207
F2CC  // [189] = -0.825195
E354  // [190] = -1.791992
04C9  // [191] = 0.299072
03A5  // [192] = 0.227783
FFB5  // [193] = -0.018311
00A6  // [194] = 0.040527
F70D  // [195] = -0.559326
FFAD  // [196] = -0.020264
ED2E  // [197] = -1.176270
EEE1  // [198] = -1.070068
0200  // [199] = 0.125000
FC77  // [200] = -0.220947
FF09  // [201] = -0.060303
09DB  // [202] = 0.615967
013E  // [203] = 0.077637
F5F7  // [204] = -0.627197
170A  // [205] = 1.439941
0109  // [206] = 0.064697
FE15  // [207] = -0.119873
021C  // [208] = 0.131836
0566  // [209] = 0.337402
FBDB  // [210] = -0.259033
01A9  // [211] = 0.103760
0068  // [212] = 0.025391
20F8  // [213] = 2.060547
FDC2  // [214] = -0.140137
FEC3  // [215] = -0.077393
FEAF  // [216] = -0.082275
FF50  // [217] = -0.042969
00E2  // [218] = 0.055176
FF83  // [219] = -0.030518
021F  // [220] = 0.132568
060D  // [221] = 0.378174
0D21  // [222] = 0.820557
00B1  // [223] = 0.043213
FF0A  // [224] = -0.060059
0783  // [225] = 0.469482
020F  // [226] = 0.128662
F679  // [227] = -0.595459
FE01  // [228] = -0.124756
EBF2  // [229] = -1.253418
EFAB  // [230] = -1.020752
0283  // [231] = 0.156982
FCDA  // [232] = -0.196777
0211  // [233] = 0.129150
06D4  // [234] = 0.426758
024E  // [235] = 0.144043
F60E  // [236] = -0.621582
134E  // [237] = 1.206543
FF27  // [238] = -0.052979
FD8A  // [239] = -0.153809
FED8  // [240] = -0.072266
FFD5  // [241] = -0.010498
FCA4  // [242] = -0.209961
01A0  // [243] = 0.101562
FDDD  // [244] = -0.133545
1B54  // [245] = 1.708008
0375  // [246] = 0.216064
001A  // [247] = 0.006348
0000  // [248] = 0.000000
FD9F  // [249] = -0.148682
FF69  // [250] = -0.036865
FA60  // [251] = -0.351562
011B  // [252] = 0.069092
0089  // [253] = 0.033447
0ABC  // [254] = 0.670898
02D5  // [255] = 0.177002
