// Parameter: fc2.bias
// Shape: [8]
// Format: QS3_12 (16-bit signed, 3 integer bits, 12 fractional bits)
// Range: [-8.000000, 7.999756], Resolution: 15.999756
// Total values: 8
//
B7A6  // [0] = -4.521973
2B6C  // [1] = 2.713867
3EC6  // [2] = 3.923340
49C4  // [3] = 4.610352
4351  // [4] = 4.207275
4518  // [5] = 4.318359
4341  // [6] = 4.203369
B8E6  // [7] = -4.443848
