// Parameter: fc2.weight
// Shape: [8, 32]
// Format: QS3_12 (16-bit signed, 3 integer bits, 12 fractional bits)
// Range: [-8.000000, 7.999756], Resolution: 15.999756
// Total values: 256
//
F7BE  // [0] = -0.516113
FC35  // [1] = -0.237061
14E0  // [2] = 1.304688
F5BC  // [3] = -0.641602
FBD2  // [4] = -0.261230
0182  // [5] = 0.094238
16B6  // [6] = 1.419434
0D45  // [7] = 0.829346
FBD7  // [8] = -0.260010
04B0  // [9] = 0.292969
056A  // [10] = 0.338379
0E53  // [11] = 0.895264
0DCE  // [12] = 0.862793
FF58  // [13] = -0.041016
F3F3  // [14] = -0.753174
F9B5  // [15] = -0.393311
00CE  // [16] = 0.050293
0BB7  // [17] = 0.732178
13B0  // [18] = 1.230469
0FE6  // [19] = 0.993652
FBE0  // [20] = -0.257812
FF99  // [21] = -0.025146
0375  // [22] = 0.216064
EC5E  // [23] = -1.227051
FF33  // [24] = -0.050049
FB96  // [25] = -0.275879
072B  // [26] = 0.447998
FA39  // [27] = -0.361084
114D  // [28] = 1.081299
EC64  // [29] = -1.225586
FB91  // [30] = -0.277100
FEC8  // [31] = -0.076172
F761  // [32] = -0.538818
FBCC  // [33] = -0.262695
0E87  // [34] = 0.907959
F546  // [35] = -0.670410
FE28  // [36] = -0.115234
0015  // [37] = 0.005127
1526  // [38] = 1.321777
078F  // [39] = 0.472412
FE1D  // [40] = -0.117920
0334  // [41] = 0.200195
0A7E  // [42] = 0.655762
0E40  // [43] = 0.890625
184D  // [44] = 1.518799
FFD5  // [45] = -0.010498
F695  // [46] = -0.588623
F9CD  // [47] = -0.387451
05D9  // [48] = 0.365479
0F6B  // [49] = 0.963623
143C  // [50] = 1.264648
08FC  // [51] = 0.561523
FC44  // [52] = -0.233398
0777  // [53] = 0.466553
09D5  // [54] = 0.614502
EBC3  // [55] = -1.264893
FF16  // [56] = -0.057129
FA9F  // [57] = -0.336182
07EF  // [58] = 0.495850
FBE7  // [59] = -0.256104
11E6  // [60] = 1.118652
EAF0  // [61] = -1.316406
FDDE  // [62] = -0.133301
FD9C  // [63] = -0.149414
F886  // [64] = -0.467285
FAFC  // [65] = -0.313477
F66F  // [66] = -0.597900
F543  // [67] = -0.671143
FE29  // [68] = -0.114990
FE9C  // [69] = -0.086914
0982  // [70] = 0.594238
F380  // [71] = -0.781250
FF03  // [72] = -0.061768
035E  // [73] = 0.210449
1707  // [74] = 1.439209
023E  // [75] = 0.140137
2718  // [76] = 2.443359
0285  // [77] = 0.157471
056A  // [78] = 0.338379
F7F0  // [79] = -0.503906
127A  // [80] = 1.154785
0AA0  // [81] = 0.664062
0117  // [82] = 0.068115
ED23  // [83] = -1.178955
00F2  // [84] = 0.059082
19AD  // [85] = 1.604736
1487  // [86] = 1.282959
EB1E  // [87] = -1.305176
00E9  // [88] = 0.056885
FD36  // [89] = -0.174316
0B28  // [90] = 0.697266
FF28  // [91] = -0.052734
0838  // [92] = 0.513672
EB4C  // [93] = -1.293945
008C  // [94] = 0.034180
FB80  // [95] = -0.281250
07AF  // [96] = 0.480225
04C2  // [97] = 0.297363
EDA6  // [98] = -1.146973
09AE  // [99] = 0.604980
024F  // [100] = 0.144287
FF19  // [101] = -0.056396
EACF  // [102] = -1.324463
F650  // [103] = -0.605469
01FA  // [104] = 0.123535
FB15  // [105] = -0.307373
F775  // [106] = -0.533936
F2DD  // [107] = -0.821045
EE2C  // [108] = -1.114258
0090  // [109] = 0.035156
09E1  // [110] = 0.617432
0586  // [111] = 0.345215
FD38  // [112] = -0.173828
F44B  // [113] = -0.731689
ECA6  // [114] = -1.209473
F2AE  // [115] = -0.832520
0326  // [116] = 0.196777
FC0E  // [117] = -0.246582
F8F6  // [118] = -0.439941
12E2  // [119] = 1.180176
0024  // [120] = 0.008789
0326  // [121] = 0.196777
F8E6  // [122] = -0.443848
05C2  // [123] = 0.359863
EE24  // [124] = -1.116211
13A1  // [125] = 1.226807
0459  // [126] = 0.271729
0119  // [127] = 0.068604
F8C2  // [128] = -0.452637
FC50  // [129] = -0.230469
FAC2  // [130] = -0.327637
F4ED  // [131] = -0.692139
FD61  // [132] = -0.163818
FEA1  // [133] = -0.085693
0BA7  // [134] = 0.728271
F668  // [135] = -0.599609
FDC8  // [136] = -0.138672
023D  // [137] = 0.139893
133C  // [138] = 1.202148
0651  // [139] = 0.394775
24A6  // [140] = 2.290527
02CA  // [141] = 0.174316
03BE  // [142] = 0.233887
F726  // [143] = -0.553223
0EB8  // [144] = 0.919922
0BCB  // [145] = 0.737061
0583  // [146] = 0.344482
F35C  // [147] = -0.790039
012A  // [148] = 0.072754
146A  // [149] = 1.275879
11ED  // [150] = 1.120361
ECB4  // [151] = -1.206055
0014  // [152] = 0.004883
FD47  // [153] = -0.170166
0BE6  // [154] = 0.743652
FF22  // [155] = -0.054199
0C00  // [156] = 0.750000
EBF6  // [157] = -1.252441
FFA4  // [158] = -0.022461
FAB3  // [159] = -0.331299
F945  // [160] = -0.420654
FBEE  // [161] = -0.254395
0439  // [162] = 0.263916
F48B  // [163] = -0.716064
FED8  // [164] = -0.072266
00EA  // [165] = 0.057129
10DF  // [166] = 1.054443
FD86  // [167] = -0.154785
FD5A  // [168] = -0.165527
04C2  // [169] = 0.297363
0CE5  // [170] = 0.805908
0A42  // [171] = 0.641113
206C  // [172] = 2.026367
005B  // [173] = 0.022217
FC44  // [174] = -0.233398
F953  // [175] = -0.417236
0AF1  // [176] = 0.683838
0AF0  // [177] = 0.683594
0DFC  // [178] = 0.874023
FED6  // [179] = -0.072754
FF95  // [180] = -0.026123
0EBF  // [181] = 0.921631
0D7D  // [182] = 0.843018
EB2B  // [183] = -1.302002
FE6B  // [184] = -0.098877
FC64  // [185] = -0.225586
0AA2  // [186] = 0.664551
FBF5  // [187] = -0.252686
1235  // [188] = 1.137939
EAE8  // [189] = -1.318359
FE20  // [190] = -0.117188
FBFC  // [191] = -0.250977
F927  // [192] = -0.427979
0159  // [193] = 0.084229
E884  // [194] = -1.467773
F6CA  // [195] = -0.575684
FF52  // [196] = -0.042480
FF80  // [197] = -0.031250
FC2E  // [198] = -0.238770
F85C  // [199] = -0.477539
008E  // [200] = 0.034668
008C  // [201] = 0.034180
0DC9  // [202] = 0.861572
EB56  // [203] = -1.291504
198E  // [204] = 1.597168
0038  // [205] = 0.013672
149A  // [206] = 1.287598
FEA7  // [207] = -0.084229
18C9  // [208] = 1.549072
03F5  // [209] = 0.247314
D55A  // [210] = -2.665527
FB77  // [211] = -0.283447
027A  // [212] = 0.154785
1E0B  // [213] = 1.877686
1B62  // [214] = 1.711426
F3B4  // [215] = -0.768555
008F  // [216] = 0.034912
FF3C  // [217] = -0.047852
0582  // [218] = 0.344238
0140  // [219] = 0.078125
E276  // [220] = -1.846191
F3F7  // [221] = -0.752197
FE93  // [222] = -0.089111
0319  // [223] = 0.193604
F794  // [224] = -0.526367
FB31  // [225] = -0.300537
1703  // [226] = 1.438232
F600  // [227] = -0.625000
FC1A  // [228] = -0.243652
0146  // [229] = 0.079590
16F8  // [230] = 1.435547
100C  // [231] = 1.002930
FD6C  // [232] = -0.161133
03D9  // [233] = 0.240479
0125  // [234] = 0.071533
116B  // [235] = 1.088623
0CA4  // [236] = 0.790039
FE80  // [237] = -0.093750
F2B2  // [238] = -0.831543
FD41  // [239] = -0.171631
01BF  // [240] = 0.109131
0C11  // [241] = 0.754150
13B2  // [242] = 1.230957
1348  // [243] = 1.205078
FB1C  // [244] = -0.305664
FF8B  // [245] = -0.028564
0149  // [246] = 0.080322
EBED  // [247] = -1.254639
FF5D  // [248] = -0.039795
FAFA  // [249] = -0.313965
0746  // [250] = 0.454590
F930  // [251] = -0.425781
0FE6  // [252] = 0.993652
EAAF  // [253] = -1.332275
FABA  // [254] = -0.329590
FCDB  // [255] = -0.196533
