// Parameter: fc2.weight
// Shape: [8, 32]
// Format: QS3_12 (16-bit signed, 3 integer bits, 12 fractional bits)
// Range: [-8.000000, 7.999756], Resolution: 15.999756
// Total values: 256
//
F8ED  // [0] = -0.442139
0174  // [1] = 0.090820
018A  // [2] = 0.096191
0223  // [3] = 0.133545
E0E1  // [4] = -1.945068
D240  // [5] = -2.859375
FEB4  // [6] = -0.081055
008C  // [7] = 0.034180
FF26  // [8] = -0.053223
FF46  // [9] = -0.045410
F3F6  // [10] = -0.752441
F312  // [11] = -0.808105
EBCF  // [12] = -1.261963
FF04  // [13] = -0.061523
02E6  // [14] = 0.181152
FBE8  // [15] = -0.255859
FECE  // [16] = -0.074707
FB7E  // [17] = -0.281738
0010  // [18] = 0.003906
092E  // [19] = 0.573730
FCE9  // [20] = -0.193115
F0C4  // [21] = -0.952148
FC28  // [22] = -0.240234
FD69  // [23] = -0.161865
FD88  // [24] = -0.154297
071E  // [25] = 0.444824
0930  // [26] = 0.574219
F88A  // [27] = -0.466309
F508  // [28] = -0.685547
03E3  // [29] = 0.242920
005F  // [30] = 0.023193
0000  // [31] = 0.000000
042D  // [32] = 0.260986
FADD  // [33] = -0.321045
034D  // [34] = 0.206299
143F  // [35] = 1.265381
169A  // [36] = 1.412598
1A05  // [37] = 1.626221
FE56  // [38] = -0.104004
F1CD  // [39] = -0.887451
FBDF  // [40] = -0.258057
003F  // [41] = 0.015381
0964  // [42] = 0.586914
07D8  // [43] = 0.490234
087E  // [44] = 0.530762
F7A1  // [45] = -0.523193
E69B  // [46] = -1.587158
06AA  // [47] = 0.416504
026C  // [48] = 0.151367
0073  // [49] = 0.028076
00C2  // [50] = 0.047363
E518  // [51] = -1.681641
F533  // [52] = -0.675049
0792  // [53] = 0.473145
F7B1  // [54] = -0.519287
0300  // [55] = 0.187500
0BFD  // [56] = 0.749268
E536  // [57] = -1.674316
0500  // [58] = 0.312500
0DD2  // [59] = 0.863770
1FF6  // [60] = 1.997559
FCD1  // [61] = -0.198975
0AB2  // [62] = 0.668457
009E  // [63] = 0.038574
07D5  // [64] = 0.489502
0214  // [65] = 0.129883
012A  // [66] = 0.072754
0184  // [67] = 0.094727
1F5A  // [68] = 1.959473
2ADD  // [69] = 2.678955
0244  // [70] = 0.141602
067D  // [71] = 0.405518
0148  // [72] = 0.080078
0183  // [73] = 0.094482
0D0F  // [74] = 0.816162
0C85  // [75] = 0.782471
155B  // [76] = 1.334717
FE3E  // [77] = -0.109863
F4AE  // [78] = -0.707520
04BA  // [79] = 0.295410
0227  // [80] = 0.134521
01D0  // [81] = 0.113281
0110  // [82] = 0.066406
F1E8  // [83] = -0.880859
0003  // [84] = 0.000732
0F9C  // [85] = 0.975586
0287  // [86] = 0.157959
002F  // [87] = 0.011475
035A  // [88] = 0.209473
F128  // [89] = -0.927734
F765  // [90] = -0.537842
0859  // [91] = 0.521729
0FFB  // [92] = 0.998779
FFDA  // [93] = -0.009277
0152  // [94] = 0.082520
0B00  // [95] = 0.687500
084E  // [96] = 0.519043
FF85  // [97] = -0.030029
00B0  // [98] = 0.042969
0134  // [99] = 0.075195
202C  // [100] = 2.010742
2DB6  // [101] = 2.856934
00F7  // [102] = 0.060303
038B  // [103] = 0.221436
FFEF  // [104] = -0.004150
0024  // [105] = 0.008789
0CA9  // [106] = 0.791260
0D87  // [107] = 0.845459
1530  // [108] = 1.324219
FFBF  // [109] = -0.015869
F829  // [110] = -0.489990
0684  // [111] = 0.407227
022A  // [112] = 0.135254
0203  // [113] = 0.125732
FEED  // [114] = -0.067139
F0EC  // [115] = -0.942383
009F  // [116] = 0.038818
104F  // [117] = 1.019287
0250  // [118] = 0.144531
0223  // [119] = 0.133545
04C8  // [120] = 0.298828
F5AA  // [121] = -0.645996
F932  // [122] = -0.425293
0822  // [123] = 0.508301
0EAA  // [124] = 0.916504
FCD4  // [125] = -0.198242
0211  // [126] = 0.129150
0600  // [127] = 0.375000
0784  // [128] = 0.469727
FFCD  // [129] = -0.012451
FF77  // [130] = -0.033447
00CB  // [131] = 0.049561
1F7B  // [132] = 1.967529
2C34  // [133] = 2.762695
0155  // [134] = 0.083252
0316  // [135] = 0.192871
FF93  // [136] = -0.026611
00DD  // [137] = 0.053955
0D42  // [138] = 0.828613
0C68  // [139] = 0.775391
139D  // [140] = 1.225830
000B  // [141] = 0.002686
F8CA  // [142] = -0.450684
046F  // [143] = 0.277100
00AB  // [144] = 0.041748
03F9  // [145] = 0.248291
FEFC  // [146] = -0.063477
F18B  // [147] = -0.903564
0043  // [148] = 0.016357
1022  // [149] = 1.008301
0325  // [150] = 0.196533
01B9  // [151] = 0.107666
03FC  // [152] = 0.249023
F561  // [153] = -0.663818
F6CF  // [154] = -0.574463
0929  // [155] = 0.572510
0EB9  // [156] = 0.920166
FCAB  // [157] = -0.208252
02C9  // [158] = 0.174072
0755  // [159] = 0.458252
0664  // [160] = 0.399414
FFA6  // [161] = -0.021973
FFDE  // [162] = -0.008301
F9FD  // [163] = -0.375732
1E29  // [164] = 1.885010
2B8D  // [165] = 2.721924
005C  // [166] = 0.022461
FA7E  // [167] = -0.344238
02AA  // [168] = 0.166504
FEBE  // [169] = -0.078613
0C60  // [170] = 0.773438
0DBE  // [171] = 0.858887
149E  // [172] = 1.288574
034E  // [173] = 0.206543
FFCC  // [174] = -0.012695
0293  // [175] = 0.160889
012E  // [176] = 0.073730
03C7  // [177] = 0.236084
FD46  // [178] = -0.170410
F766  // [179] = -0.537598
03E9  // [180] = 0.244385
0F5E  // [181] = 0.960449
0705  // [182] = 0.438721
0236  // [183] = 0.138184
FEC4  // [184] = -0.077148
FCC4  // [185] = -0.202148
F54B  // [186] = -0.669189
0791  // [187] = 0.472900
061A  // [188] = 0.381348
FBBF  // [189] = -0.265869
FF2B  // [190] = -0.052002
FCED  // [191] = -0.192139
0892  // [192] = 0.535645
0186  // [193] = 0.095215
FCEA  // [194] = -0.192871
EF26  // [195] = -1.053223
1EA3  // [196] = 1.914795
2C7E  // [197] = 2.780762
FB0D  // [198] = -0.309326
F35C  // [199] = -0.790039
0343  // [200] = 0.203857
006D  // [201] = 0.026611
08DC  // [202] = 0.553711
0EAC  // [203] = 0.916992
1494  // [204] = 1.286133
02D7  // [205] = 0.177490
0802  // [206] = 0.500488
0055  // [207] = 0.020752
FED3  // [208] = -0.073486
03A1  // [209] = 0.226807
FFFD  // [210] = -0.000732
0079  // [211] = 0.029541
0812  // [212] = 0.504395
1280  // [213] = 1.156250
0A5A  // [214] = 0.646973
F922  // [215] = -0.429199
FD05  // [216] = -0.186279
FBE8  // [217] = -0.255859
EE70  // [218] = -1.097656
040D  // [219] = 0.253174
F60C  // [220] = -0.622070
00F1  // [221] = 0.058838
F9B6  // [222] = -0.393066
F0A0  // [223] = -0.960938
F52F  // [224] = -0.676025
FE6A  // [225] = -0.099121
00F9  // [226] = 0.060791
08BC  // [227] = 0.545898
E1D9  // [228] = -1.884521
D06E  // [229] = -2.973145
0240  // [230] = 0.140625
084A  // [231] = 0.518066
FE34  // [232] = -0.112305
FB10  // [233] = -0.308594
F575  // [234] = -0.658936
F26A  // [235] = -0.849121
EAB4  // [236] = -1.331055
FE62  // [237] = -0.101074
FAC5  // [238] = -0.326904
FDD8  // [239] = -0.134766
0077  // [240] = 0.029053
FBED  // [241] = -0.254639
FF10  // [242] = -0.058594
02E6  // [243] = 0.181152
FA87  // [244] = -0.342041
ED22  // [245] = -1.179199
F85A  // [246] = -0.478027
029E  // [247] = 0.163574
FF5A  // [248] = -0.040527
065A  // [249] = 0.396973
0DC0  // [250] = 0.859375
FAA1  // [251] = -0.335693
02A7  // [252] = 0.165771
00AA  // [253] = 0.041504
03C2  // [254] = 0.234863
0A30  // [255] = 0.636719
