// Parameter: fc2.bias
// Shape: [8]
// Format: QS3_12 (16-bit signed, 3 integer bits, 12 fractional bits)
// Range: [-8.000000, 7.999756], Resolution: 15.999756
// Total values: 8
//
E18B  // [0] = -1.903564
DDBD  // [1] = -2.141357
E1CF  // [2] = -1.886963
1DEA  // [3] = 1.869629
E2BF  // [4] = -1.828369
E021  // [5] = -1.991943
F427  // [6] = -0.740479
DD87  // [7] = -2.154541
