// Parameter: fc_out.weight
// Shape: [2, 8]
// Format: QS3_12 (16-bit signed, 3 integer bits, 12 fractional bits)
// Range: [-8.000000, 7.999756], Resolution: 15.999756
// Total values: 16
//
E695  // [0] = -1.588623
E73B  // [1] = -1.548096
EF47  // [2] = -1.045166
1BB6  // [3] = 1.731934
EE57  // [4] = -1.103760
EACE  // [5] = -1.324707
E3A3  // [6] = -1.772705
E3F6  // [7] = -1.752441
EDEE  // [8] = -1.129395
E97B  // [9] = -1.407471
E254  // [10] = -1.854492
14D5  // [11] = 1.302002
E1CC  // [12] = -1.887695
E67F  // [13] = -1.593994
EF3F  // [14] = -1.047119
ED22  // [15] = -1.179199
