// Parameter: fc_out.weight
// Shape: [2, 8]
// Format: QS3_12 (16-bit signed, 3 integer bits, 12 fractional bits)
// Range: [-8.000000, 7.999756], Resolution: 15.999756
// Total values: 16
//
DAAC  // [0] = -2.333008
1325  // [1] = 1.196533
1C8F  // [2] = 1.784912
209B  // [3] = 2.037842
1DC4  // [4] = 1.860352
22A2  // [5] = 2.164551
2668  // [6] = 2.400391
D7E6  // [7] = -2.506348
D948  // [8] = -2.419922
274F  // [9] = 2.456787
1E49  // [10] = 1.892822
23F7  // [11] = 2.247803
1FE0  // [12] = 1.992188
1FE4  // [13] = 1.993164
1B6B  // [14] = 1.713623
DDAC  // [15] = -2.145508
