// Parameter: fc_out.weight
// Shape: [2, 8]
// Format: QS3_12 (16-bit signed, 3 integer bits, 12 fractional bits)
// Range: [-8.000000, 7.999756], Resolution: 15.999756
// Total values: 16
//
1E89  // [0] = 1.908447
EF04  // [1] = -1.061523
32B4  // [2] = 3.168945
B8B1  // [3] = -4.456787
3C6B  // [4] = 3.776123
1F1F  // [5] = 1.945068
BDE0  // [6] = -4.132812
B29C  // [7] = -4.836914
3140  // [8] = 3.078125
183A  // [9] = 1.514160
3BFD  // [10] = 3.749268
C146  // [11] = -3.920410
3F09  // [12] = 3.939697
2442  // [13] = 2.266113
C19E  // [14] = -3.898926
BF2C  // [15] = -4.051758
