// Parameter: fc2.weight
// Shape: [16, 64]
// Format: QS2_13 (16-bit signed, 2 integer bits, 13 fractional bits)
// Range: [-4.000000, 3.999878], Resolution: 7.999878
// Total values: 1024
//
FB25  // [0] = -0.151733
FA21  // [1] = -0.183472
FB60  // [2] = -0.144531
FBD1  // [3] = -0.130737
020C  // [4] = 0.063965
FAD6  // [5] = -0.161377
F9EE  // [6] = -0.189697
F98C  // [7] = -0.201660
FD1F  // [8] = -0.089966
054D  // [9] = 0.165649
FEBC  // [10] = -0.039551
1353  // [11] = 0.603882
FC18  // [12] = -0.122070
F2EA  // [13] = -0.408936
1B1D  // [14] = 0.847290
F971  // [15] = -0.204956
FB23  // [16] = -0.151978
FC5B  // [17] = -0.113892
EB9A  // [18] = -0.637451
0089  // [19] = 0.016724
FCB9  // [20] = -0.102417
FE04  // [21] = -0.062012
FAF9  // [22] = -0.157104
0B40  // [23] = 0.351562
FCC2  // [24] = -0.101318
0BF6  // [25] = 0.373779
00DA  // [26] = 0.026611
0677  // [27] = 0.202026
FDBE  // [28] = -0.070557
0055  // [29] = 0.010376
F46D  // [30] = -0.361694
FEF8  // [31] = -0.032227
03D6  // [32] = 0.119873
038D  // [33] = 0.110962
0CED  // [34] = 0.403931
FB7C  // [35] = -0.141113
FF43  // [36] = -0.023071
F7C0  // [37] = -0.257812
100B  // [38] = 0.501343
FF51  // [39] = -0.021362
1180  // [40] = 0.546875
0777  // [41] = 0.233276
2019  // [42] = 1.003052
F9BA  // [43] = -0.196045
F6DE  // [44] = -0.285400
FCA7  // [45] = -0.104614
0120  // [46] = 0.035156
0849  // [47] = 0.258911
FF17  // [48] = -0.028442
082A  // [49] = 0.255127
FF77  // [50] = -0.016724
F72A  // [51] = -0.276123
F919  // [52] = -0.215698
0ADE  // [53] = 0.339600
F9F1  // [54] = -0.189331
FFE1  // [55] = -0.003784
034B  // [56] = 0.102905
F845  // [57] = -0.241577
03AA  // [58] = 0.114502
0367  // [59] = 0.106323
15CF  // [60] = 0.681519
F6CB  // [61] = -0.287720
1306  // [62] = 0.594482
FD6F  // [63] = -0.080200
08EB  // [64] = 0.278687
0838  // [65] = 0.256836
046E  // [66] = 0.138428
04C7  // [67] = 0.149292
FC55  // [68] = -0.114624
0A98  // [69] = 0.331055
03E3  // [70] = 0.121460
04D7  // [71] = 0.151245
0427  // [72] = 0.129761
0090  // [73] = 0.017578
FBAB  // [74] = -0.135376
EA85  // [75] = -0.671265
05B9  // [76] = 0.178833
FF86  // [77] = -0.014893
EF31  // [78] = -0.525269
04B3  // [79] = 0.146851
058D  // [80] = 0.173462
0728  // [81] = 0.223633
09E4  // [82] = 0.309082
0044  // [83] = 0.008301
034E  // [84] = 0.103271
02FC  // [85] = 0.093262
053B  // [86] = 0.163452
F633  // [87] = -0.306274
01B3  // [88] = 0.053101
F68E  // [89] = -0.295166
0316  // [90] = 0.096436
FBE1  // [91] = -0.128784
04FA  // [92] = 0.155518
FEB7  // [93] = -0.040161
06C6  // [94] = 0.211670
FD8E  // [95] = -0.076416
FC79  // [96] = -0.110229
F580  // [97] = -0.328125
F7ED  // [98] = -0.252319
0691  // [99] = 0.205200
02B7  // [100] = 0.084839
0584  // [101] = 0.172363
F397  // [102] = -0.387817
F8B1  // [103] = -0.228394
F108  // [104] = -0.467773
FD6B  // [105] = -0.080688
E9B6  // [106] = -0.696533
0859  // [107] = 0.260864
02C8  // [108] = 0.086914
0226  // [109] = 0.067139
02B7  // [110] = 0.084839
F708  // [111] = -0.280273
005B  // [112] = 0.011108
FD85  // [113] = -0.077515
FEE6  // [114] = -0.034424
051D  // [115] = 0.159790
040B  // [116] = 0.126343
F765  // [117] = -0.268921
053D  // [118] = 0.163696
0186  // [119] = 0.047607
F9FF  // [120] = -0.187622
030E  // [121] = 0.095459
FE1D  // [122] = -0.058960
0100  // [123] = 0.031250
E3D1  // [124] = -0.880737
0486  // [125] = 0.141357
F312  // [126] = -0.404053
0706  // [127] = 0.219482
FAE4  // [128] = -0.159668
F3F3  // [129] = -0.376587
F5CA  // [130] = -0.319092
F707  // [131] = -0.280396
055C  // [132] = 0.167480
F50E  // [133] = -0.342041
FA10  // [134] = -0.185547
F6EE  // [135] = -0.283447
FAB1  // [136] = -0.165894
051D  // [137] = 0.159790
0493  // [138] = 0.142944
14EA  // [139] = 0.653564
FC16  // [140] = -0.122314
0F14  // [141] = 0.471191
1ACD  // [142] = 0.837524
F7C2  // [143] = -0.257568
FB2F  // [144] = -0.150513
F770  // [145] = -0.267578
0AF4  // [146] = 0.342285
04E0  // [147] = 0.152344
FDBE  // [148] = -0.070557
FFC1  // [149] = -0.007690
FE3C  // [150] = -0.055176
0CB2  // [151] = 0.396729
FAD1  // [152] = -0.161987
12A8  // [153] = 0.583008
0166  // [154] = 0.043701
09AB  // [155] = 0.302124
F72B  // [156] = -0.276001
0226  // [157] = 0.067139
0290  // [158] = 0.080078
0348  // [159] = 0.102539
1220  // [160] = 0.566406
0D70  // [161] = 0.419922
FEA3  // [162] = -0.042603
FBD0  // [163] = -0.130859
F9BE  // [164] = -0.195557
F9D2  // [165] = -0.193115
0A0F  // [166] = 0.314331
16FF  // [167] = 0.718628
1441  // [168] = 0.632935
0471  // [169] = 0.138794
09C8  // [170] = 0.305664
F98A  // [171] = -0.201904
F9C7  // [172] = -0.194458
04A3  // [173] = 0.144897
0011  // [174] = 0.002075
0CAD  // [175] = 0.396118
FC99  // [176] = -0.106323
0BAF  // [177] = 0.365112
FD35  // [178] = -0.087280
F7E0  // [179] = -0.253906
F8F6  // [180] = -0.219971
024F  // [181] = 0.072144
F44A  // [182] = -0.365967
FB16  // [183] = -0.153564
0323  // [184] = 0.098022
FA59  // [185] = -0.176636
09CE  // [186] = 0.306396
00DB  // [187] = 0.026733
2625  // [188] = 1.192017
F607  // [189] = -0.311646
117C  // [190] = 0.546387
F49A  // [191] = -0.356201
07EB  // [192] = 0.247437
0761  // [193] = 0.230591
000F  // [194] = 0.001831
01B3  // [195] = 0.053101
FDBA  // [196] = -0.071045
051C  // [197] = 0.159668
030F  // [198] = 0.095581
066C  // [199] = 0.200684
05CC  // [200] = 0.181152
FB0E  // [201] = -0.154541
FD03  // [202] = -0.093384
F301  // [203] = -0.406128
03E6  // [204] = 0.121826
0E12  // [205] = 0.439697
ECAB  // [206] = -0.604126
056F  // [207] = 0.169800
02AC  // [208] = 0.083496
009D  // [209] = 0.019165
1B87  // [210] = 0.860229
FEA9  // [211] = -0.041870
0041  // [212] = 0.007935
0515  // [213] = 0.158813
031C  // [214] = 0.097168
F63A  // [215] = -0.305420
FD26  // [216] = -0.089111
FC87  // [217] = -0.108521
FEC3  // [218] = -0.038696
F7A6  // [219] = -0.260986
0212  // [220] = 0.064697
00A8  // [221] = 0.020508
0BFE  // [222] = 0.374756
081E  // [223] = 0.253662
01B2  // [224] = 0.052979
FD3A  // [225] = -0.086670
EF04  // [226] = -0.530762
FF21  // [227] = -0.027222
FC33  // [228] = -0.118774
09EF  // [229] = 0.310425
F407  // [230] = -0.374146
0794  // [231] = 0.236816
F17E  // [232] = -0.453369
FA89  // [233] = -0.170776
E330  // [234] = -0.900391
FE4F  // [235] = -0.052856
0635  // [236] = 0.193970
021C  // [237] = 0.065918
FFA0  // [238] = -0.011719
F6D2  // [239] = -0.286865
038A  // [240] = 0.110596
FED8  // [241] = -0.036133
FE9F  // [242] = -0.043091
054B  // [243] = 0.165405
01A5  // [244] = 0.051392
F048  // [245] = -0.491211
00AC  // [246] = 0.020996
046D  // [247] = 0.138306
F9E0  // [248] = -0.191406
05DB  // [249] = 0.182983
00FA  // [250] = 0.030518
FE9A  // [251] = -0.043701
EF2E  // [252] = -0.525635
07D0  // [253] = 0.244141
EFC3  // [254] = -0.507446
FC63  // [255] = -0.112915
F952  // [256] = -0.208740
F72C  // [257] = -0.275879
F91E  // [258] = -0.215088
F7A0  // [259] = -0.261719
00E9  // [260] = 0.028442
F744  // [261] = -0.272949
F945  // [262] = -0.210327
F66B  // [263] = -0.299438
FD77  // [264] = -0.079224
044B  // [265] = 0.134155
04D1  // [266] = 0.150513
1924  // [267] = 0.785645
FBC7  // [268] = -0.131958
08B3  // [269] = 0.271851
1A45  // [270] = 0.820923
F5DD  // [271] = -0.316772
FA20  // [272] = -0.183594
F9A7  // [273] = -0.198364
FB6B  // [274] = -0.143188
02AF  // [275] = 0.083862
FFA3  // [276] = -0.011353
FEC1  // [277] = -0.038940
FFA0  // [278] = -0.011719
0C80  // [279] = 0.390625
FBBB  // [280] = -0.133423
109C  // [281] = 0.519043
01D4  // [282] = 0.057129
0F1D  // [283] = 0.472290
FB7F  // [284] = -0.140747
03E8  // [285] = 0.122070
F6C1  // [286] = -0.288940
FEDC  // [287] = -0.035645
0E7F  // [288] = 0.453003
0911  // [289] = 0.283325
01B3  // [290] = 0.053101
F9C2  // [291] = -0.195068
FAE4  // [292] = -0.159668
F6F7  // [293] = -0.282349
0E3A  // [294] = 0.444580
159F  // [295] = 0.675659
15EC  // [296] = 0.685059
0667  // [297] = 0.200073
1541  // [298] = 0.664185
F649  // [299] = -0.303589
FA8D  // [300] = -0.170288
03B5  // [301] = 0.115845
F9BC  // [302] = -0.195801
0E09  // [303] = 0.438599
FC93  // [304] = -0.107056
0973  // [305] = 0.295288
022A  // [306] = 0.067627
F9C9  // [307] = -0.194214
F8B9  // [308] = -0.227417
03B3  // [309] = 0.115601
F916  // [310] = -0.216064
FA98  // [311] = -0.168945
0194  // [312] = 0.049316
F9A5  // [313] = -0.198608
093A  // [314] = 0.288330
00C2  // [315] = 0.023682
2A3E  // [316] = 1.320068
F447  // [317] = -0.366333
107B  // [318] = 0.515015
F5B4  // [319] = -0.321777
04FD  // [320] = 0.155884
0ABF  // [321] = 0.335815
054E  // [322] = 0.165771
06C9  // [323] = 0.212036
01BC  // [324] = 0.054199
0AC8  // [325] = 0.336914
06AB  // [326] = 0.208374
043B  // [327] = 0.132202
0734  // [328] = 0.225098
FC8D  // [329] = -0.107788
FB2C  // [330] = -0.150879
EEB6  // [331] = -0.540283
0538  // [332] = 0.163086
0AC5  // [333] = 0.336548
E8C9  // [334] = -0.725464
080D  // [335] = 0.251587
0343  // [336] = 0.101929
02FE  // [337] = 0.093506
152C  // [338] = 0.661621
00CA  // [339] = 0.024658
FF43  // [340] = -0.023071
050E  // [341] = 0.157959
05BF  // [342] = 0.179565
F660  // [343] = -0.300781
0365  // [344] = 0.106079
F791  // [345] = -0.263550
00AE  // [346] = 0.021240
F69A  // [347] = -0.293701
078E  // [348] = 0.236084
FE67  // [349] = -0.049927
08E1  // [350] = 0.277466
049C  // [351] = 0.144043
FD18  // [352] = -0.090820
FD6B  // [353] = -0.080688
F8D5  // [354] = -0.223999
062D  // [355] = 0.192993
012A  // [356] = 0.036377
0787  // [357] = 0.235229
EC71  // [358] = -0.611206
F825  // [359] = -0.245483
EDB8  // [360] = -0.571289
FB8F  // [361] = -0.138794
E666  // [362] = -0.800049
06CB  // [363] = 0.212280
0799  // [364] = 0.237427
FF7E  // [365] = -0.015869
013B  // [366] = 0.038452
F8EE  // [367] = -0.220947
0553  // [368] = 0.166382
FB1C  // [369] = -0.152832
001F  // [370] = 0.003784
06D2  // [371] = 0.213135
033D  // [372] = 0.101196
F0C1  // [373] = -0.476440
07DA  // [374] = 0.245361
03EE  // [375] = 0.122803
FEB1  // [376] = -0.040894
03BE  // [377] = 0.116943
FDFF  // [378] = -0.062622
FE04  // [379] = -0.062012
E826  // [380] = -0.745361
04AF  // [381] = 0.146362
E922  // [382] = -0.714600
04AF  // [383] = 0.146362
09EA  // [384] = 0.309814
063D  // [385] = 0.194946
0837  // [386] = 0.256714
0A2E  // [387] = 0.318115
0131  // [388] = 0.037231
09AC  // [389] = 0.302246
02B7  // [390] = 0.084839
044F  // [391] = 0.134644
0560  // [392] = 0.167969
FD84  // [393] = -0.077637
FA1A  // [394] = -0.184326
EA66  // [395] = -0.675049
0929  // [396] = 0.286255
0228  // [397] = 0.067383
E903  // [398] = -0.718384
0A75  // [399] = 0.326782
03E2  // [400] = 0.121338
0863  // [401] = 0.262085
11C8  // [402] = 0.555664
FB13  // [403] = -0.153931
027E  // [404] = 0.077881
039C  // [405] = 0.112793
020D  // [406] = 0.064087
F739  // [407] = -0.274292
0625  // [408] = 0.192017
F5E0  // [409] = -0.316406
FC0F  // [410] = -0.123169
F517  // [411] = -0.340942
0723  // [412] = 0.223022
016A  // [413] = 0.044189
0889  // [414] = 0.266724
022A  // [415] = 0.067627
F9C9  // [416] = -0.194214
F88B  // [417] = -0.233032
FC69  // [418] = -0.112183
0311  // [419] = 0.095825
00AE  // [420] = 0.021240
0CA0  // [421] = 0.394531
F29D  // [422] = -0.418335
F367  // [423] = -0.393677
E96A  // [424] = -0.705811
FD9B  // [425] = -0.074829
E43D  // [426] = -0.867554
0340  // [427] = 0.101562
09D0  // [428] = 0.306641
025C  // [429] = 0.073730
0131  // [430] = 0.037231
F63E  // [431] = -0.304932
05D9  // [432] = 0.182739
F782  // [433] = -0.265381
001C  // [434] = 0.003418
04F1  // [435] = 0.154419
0377  // [436] = 0.108276
F297  // [437] = -0.419067
083F  // [438] = 0.257690
032B  // [439] = 0.098999
FD28  // [440] = -0.088867
0749  // [441] = 0.227661
FB9E  // [442] = -0.136963
FFAF  // [443] = -0.009888
DB96  // [444] = -1.137939
0AA4  // [445] = 0.332520
EBDF  // [446] = -0.629028
049E  // [447] = 0.144287
FCA0  // [448] = -0.105469
F5B1  // [449] = -0.322144
FB88  // [450] = -0.139648
F8D3  // [451] = -0.224243
00DD  // [452] = 0.026978
F880  // [453] = -0.234375
F8F0  // [454] = -0.220703
F9B2  // [455] = -0.197021
FB7E  // [456] = -0.140869
00F1  // [457] = 0.029419
04AF  // [458] = 0.146362
1792  // [459] = 0.736572
FAC6  // [460] = -0.163330
0435  // [461] = 0.131470
1CB0  // [462] = 0.896484
F7F1  // [463] = -0.251831
FD75  // [464] = -0.079468
F81F  // [465] = -0.246216
FD02  // [466] = -0.093506
01C4  // [467] = 0.055176
FDB4  // [468] = -0.071777
FD32  // [469] = -0.087646
FC6A  // [470] = -0.112061
0E97  // [471] = 0.455933
F8B4  // [472] = -0.228027
1220  // [473] = 0.566406
FFC8  // [474] = -0.006836
083D  // [475] = 0.257446
FD76  // [476] = -0.079346
01FA  // [477] = 0.061768
F858  // [478] = -0.239258
FF1E  // [479] = -0.027588
0DE6  // [480] = 0.434326
0A16  // [481] = 0.315186
061A  // [482] = 0.190674
F830  // [483] = -0.244141
FEA7  // [484] = -0.042114
F981  // [485] = -0.203003
123F  // [486] = 0.570190
12C2  // [487] = 0.586182
130E  // [488] = 0.595459
01E8  // [489] = 0.059570
14ED  // [490] = 0.653931
FB8A  // [491] = -0.139404
F82C  // [492] = -0.244629
02E0  // [493] = 0.089844
FB4C  // [494] = -0.146973
0AC8  // [495] = 0.336914
FF98  // [496] = -0.012695
0D3E  // [497] = 0.413818
FDE9  // [498] = -0.065308
FB03  // [499] = -0.155884
FA89  // [500] = -0.170776
03C2  // [501] = 0.117432
F5A6  // [502] = -0.323486
FB00  // [503] = -0.156250
00CA  // [504] = 0.024658
FA8D  // [505] = -0.170288
0941  // [506] = 0.289185
01E5  // [507] = 0.059204
2565  // [508] = 1.168579
F874  // [509] = -0.235840
0FB5  // [510] = 0.490845
FB7A  // [511] = -0.141357
FA09  // [512] = -0.186401
F8C8  // [513] = -0.225586
F8AB  // [514] = -0.229126
FB73  // [515] = -0.142212
0171  // [516] = 0.045044
F441  // [517] = -0.367065
F9A9  // [518] = -0.198120
FBD3  // [519] = -0.130493
FD25  // [520] = -0.089233
01D3  // [521] = 0.057007
0487  // [522] = 0.141479
14AE  // [523] = 0.646240
FAF2  // [524] = -0.157959
15F9  // [525] = 0.686646
0F0D  // [526] = 0.470337
F83A  // [527] = -0.242920
F9CA  // [528] = -0.194092
F4ED  // [529] = -0.346069
1768  // [530] = 0.731445
0488  // [531] = 0.141602
02B3  // [532] = 0.084351
FDE3  // [533] = -0.066040
FC89  // [534] = -0.108276
0267  // [535] = 0.075073
FAA5  // [536] = -0.167358
0CB6  // [537] = 0.397217
0023  // [538] = 0.004272
09A3  // [539] = 0.301147
F89A  // [540] = -0.231201
0347  // [541] = 0.102417
0ABB  // [542] = 0.335327
054E  // [543] = 0.165771
1372  // [544] = 0.607666
078B  // [545] = 0.235718
F6F0  // [546] = -0.283203
F865  // [547] = -0.237671
F497  // [548] = -0.356567
FA86  // [549] = -0.171143
010F  // [550] = 0.033081
149B  // [551] = 0.643921
0992  // [552] = 0.299072
FE27  // [553] = -0.057739
F63E  // [554] = -0.304932
F8CF  // [555] = -0.224731
F655  // [556] = -0.302124
00B7  // [557] = 0.022339
FEA0  // [558] = -0.042969
0E49  // [559] = 0.446411
FC91  // [560] = -0.107300
0B00  // [561] = 0.343750
FED8  // [562] = -0.036133
FE4F  // [563] = -0.052856
FCE2  // [564] = -0.097412
F635  // [565] = -0.306030
F870  // [566] = -0.236328
FDCC  // [567] = -0.068848
FD77  // [568] = -0.079224
FD98  // [569] = -0.075195
0941  // [570] = 0.289185
FCB3  // [571] = -0.103149
1788  // [572] = 0.735352
F7F6  // [573] = -0.251221
0717  // [574] = 0.221558
F272  // [575] = -0.423584
FAC8  // [576] = -0.163086
F7B9  // [577] = -0.258667
FBE9  // [578] = -0.127808
F7E7  // [579] = -0.253052
02BB  // [580] = 0.085327
F506  // [581] = -0.343018
F8E9  // [582] = -0.221558
F845  // [583] = -0.241577
FB23  // [584] = -0.151978
014B  // [585] = 0.040405
0493  // [586] = 0.142944
18B1  // [587] = 0.771606
FA72  // [588] = -0.173584
115B  // [589] = 0.542358
0DF5  // [590] = 0.436157
F85D  // [591] = -0.238647
FB69  // [592] = -0.143433
F635  // [593] = -0.306030
1670  // [594] = 0.701172
0412  // [595] = 0.127197
FE7D  // [596] = -0.047241
FD2B  // [597] = -0.088501
FE9A  // [598] = -0.043701
0754  // [599] = 0.229004
FABC  // [600] = -0.164551
0AF3  // [601] = 0.342163
FEF0  // [602] = -0.033203
05FF  // [603] = 0.187378
F8B6  // [604] = -0.227783
015D  // [605] = 0.042603
049D  // [606] = 0.144165
05C8  // [607] = 0.180664
0CD7  // [608] = 0.401245
0882  // [609] = 0.265869
F7AE  // [610] = -0.260010
F8B7  // [611] = -0.227661
F768  // [612] = -0.268555
F7F2  // [613] = -0.251709
0558  // [614] = 0.166992
19CE  // [615] = 0.806396
095E  // [616] = 0.292725
FEA3  // [617] = -0.042603
F8B7  // [618] = -0.227661
F50A  // [619] = -0.342529
F6B2  // [620] = -0.290771
027F  // [621] = 0.078003
FCCD  // [622] = -0.099976
09F4  // [623] = 0.311035
FB88  // [624] = -0.139648
0832  // [625] = 0.256104
FD60  // [626] = -0.082031
FE47  // [627] = -0.053833
F933  // [628] = -0.212524
FBDA  // [629] = -0.129639
FB88  // [630] = -0.139648
FE0C  // [631] = -0.061035
FE13  // [632] = -0.060181
FB89  // [633] = -0.139526
0909  // [634] = 0.282349
FF3D  // [635] = -0.023804
1DDC  // [636] = 0.933105
F8C4  // [637] = -0.226074
09A7  // [638] = 0.301636
F8F5  // [639] = -0.220093
FDE5  // [640] = -0.065796
F922  // [641] = -0.214600
FA84  // [642] = -0.171387
FA3C  // [643] = -0.180176
FD51  // [644] = -0.083862
F456  // [645] = -0.364502
F91E  // [646] = -0.215088
F873  // [647] = -0.235962
FBAD  // [648] = -0.135132
0419  // [649] = 0.128052
024F  // [650] = 0.072144
181C  // [651] = 0.753418
F9B6  // [652] = -0.196533
10FB  // [653] = 0.530640
12FE  // [654] = 0.593506
F806  // [655] = -0.249268
FF47  // [656] = -0.022583
F504  // [657] = -0.343262
13EA  // [658] = 0.622314
0107  // [659] = 0.032104
0186  // [660] = 0.047607
FFFB  // [661] = -0.000610
FCA7  // [662] = -0.104614
0581  // [663] = 0.171997
FC92  // [664] = -0.107178
0FF1  // [665] = 0.498169
FFC5  // [666] = -0.007202
0946  // [667] = 0.289795
FA00  // [668] = -0.187500
00A6  // [669] = 0.020264
0859  // [670] = 0.260864
09F7  // [671] = 0.311401
0E75  // [672] = 0.451782
0B91  // [673] = 0.361450
FC6B  // [674] = -0.111938
FBEB  // [675] = -0.127563
F23F  // [676] = -0.429810
FD61  // [677] = -0.081909
047E  // [678] = 0.140381
1A63  // [679] = 0.824585
0D78  // [680] = 0.420898
FD7B  // [681] = -0.078735
F7D4  // [682] = -0.255371
F8E3  // [683] = -0.222290
F7E3  // [684] = -0.253540
03CF  // [685] = 0.119019
FBD7  // [686] = -0.130005
0E3D  // [687] = 0.444946
FB6E  // [688] = -0.142822
067F  // [689] = 0.203003
FCD8  // [690] = -0.098633
F902  // [691] = -0.218506
FAB0  // [692] = -0.166016
F785  // [693] = -0.265015
F98C  // [694] = -0.201660
FD32  // [695] = -0.087646
FD51  // [696] = -0.083862
FA77  // [697] = -0.172974
08C7  // [698] = 0.274292
FD7B  // [699] = -0.078735
1FE3  // [700] = 0.996460
F682  // [701] = -0.296631
0876  // [702] = 0.264404
F38C  // [703] = -0.389160
F7D4  // [704] = -0.255371
F63D  // [705] = -0.305054
F832  // [706] = -0.243896
F99F  // [707] = -0.199341
062A  // [708] = 0.192627
F459  // [709] = -0.364136
F91A  // [710] = -0.215576
F78E  // [711] = -0.263916
FDF0  // [712] = -0.064453
FF4F  // [713] = -0.021606
FF5A  // [714] = -0.020264
169E  // [715] = 0.706787
F753  // [716] = -0.271118
0496  // [717] = 0.143311
1A1D  // [718] = 0.816040
F9F6  // [719] = -0.188721
FC9C  // [720] = -0.105957
F828  // [721] = -0.245117
F7D2  // [722] = -0.255615
04AE  // [723] = 0.146240
FCCC  // [724] = -0.100098
FB34  // [725] = -0.149902
002D  // [726] = 0.005493
0A8B  // [727] = 0.329468
FAE2  // [728] = -0.159912
1111  // [729] = 0.533325
008C  // [730] = 0.017090
0749  // [731] = 0.227661
FB36  // [732] = -0.149658
FFB2  // [733] = -0.009521
F8BD  // [734] = -0.226929
03FD  // [735] = 0.124634
0A01  // [736] = 0.312622
0923  // [737] = 0.285522
0336  // [738] = 0.100342
FB6F  // [739] = -0.142700
FB6A  // [740] = -0.143311
FAFF  // [741] = -0.156372
1012  // [742] = 0.502197
132D  // [743] = 0.599243
1487  // [744] = 0.641479
056B  // [745] = 0.169312
138A  // [746] = 0.610596
F843  // [747] = -0.241821
FAB9  // [748] = -0.164917
00D6  // [749] = 0.026123
FB78  // [750] = -0.141602
0EDD  // [751] = 0.464478
F9D1  // [752] = -0.193237
06CD  // [753] = 0.212524
FF17  // [754] = -0.028442
F848  // [755] = -0.241211
FBF1  // [756] = -0.126831
03BC  // [757] = 0.116699
F83D  // [758] = -0.242554
FEAB  // [759] = -0.041626
0493  // [760] = 0.142944
FD4D  // [761] = -0.084351
0352  // [762] = 0.103760
FF21  // [763] = -0.027222
2398  // [764] = 1.112305
FB7B  // [765] = -0.141235
0FCD  // [766] = 0.493774
F771  // [767] = -0.267456
F7A6  // [768] = -0.260986
F75F  // [769] = -0.269653
FA5F  // [770] = -0.175903
F68F  // [771] = -0.295044
0515  // [772] = 0.158813
F7F1  // [773] = -0.251831
FB02  // [774] = -0.156006
FAE6  // [775] = -0.159424
FAC4  // [776] = -0.163574
0407  // [777] = 0.125854
0513  // [778] = 0.158569
1634  // [779] = 0.693848
F9D6  // [780] = -0.192627
0528  // [781] = 0.161133
1B9D  // [782] = 0.862915
F9A2  // [783] = -0.198975
FC9C  // [784] = -0.105957
F988  // [785] = -0.202148
005E  // [786] = 0.011475
0408  // [787] = 0.125977
FE74  // [788] = -0.048340
FD71  // [789] = -0.079956
FE17  // [790] = -0.059692
0F65  // [791] = 0.481079
F8C2  // [792] = -0.226318
0E90  // [793] = 0.455078
01ED  // [794] = 0.060181
09C0  // [795] = 0.304688
F820  // [796] = -0.246094
0097  // [797] = 0.018433
FC22  // [798] = -0.120850
0515  // [799] = 0.158813
0AF6  // [800] = 0.342529
0811  // [801] = 0.252075
0033  // [802] = 0.006226
FCAA  // [803] = -0.104248
FB25  // [804] = -0.151733
FAF5  // [805] = -0.157593
1056  // [806] = 0.510498
1268  // [807] = 0.575195
1629  // [808] = 0.692505
0139  // [809] = 0.038208
11CF  // [810] = 0.556519
F68B  // [811] = -0.295532
FB79  // [812] = -0.141479
03E5  // [813] = 0.121704
FAE8  // [814] = -0.159180
0E47  // [815] = 0.446167
FD67  // [816] = -0.081177
0D3B  // [817] = 0.413452
FFA7  // [818] = -0.010864
FAB2  // [819] = -0.165771
F927  // [820] = -0.213989
04EB  // [821] = 0.153687
F972  // [822] = -0.204834
FDDF  // [823] = -0.066528
03C7  // [824] = 0.118042
FC8C  // [825] = -0.107910
068F  // [826] = 0.204956
0134  // [827] = 0.037598
2474  // [828] = 1.139160
FAD8  // [829] = -0.161133
1106  // [830] = 0.531982
FAC8  // [831] = -0.163086
F8BE  // [832] = -0.226807
F70E  // [833] = -0.279541
F74E  // [834] = -0.271729
F7CB  // [835] = -0.256470
002B  // [836] = 0.005249
F795  // [837] = -0.263062
F8D9  // [838] = -0.223511
FA66  // [839] = -0.175049
F9D1  // [840] = -0.193237
04CD  // [841] = 0.150024
0415  // [842] = 0.127563
18A4  // [843] = 0.770020
F786  // [844] = -0.264893
0487  // [845] = 0.141479
197F  // [846] = 0.796753
F8B7  // [847] = -0.227661
FBA8  // [848] = -0.135742
F91E  // [849] = -0.215088
0012  // [850] = 0.002197
0163  // [851] = 0.043335
0258  // [852] = 0.073242
FF1B  // [853] = -0.027954
FB25  // [854] = -0.151733
0D2A  // [855] = 0.411377
F9A6  // [856] = -0.198486
1005  // [857] = 0.500610
00F1  // [858] = 0.029419
0CAC  // [859] = 0.395996
FC75  // [860] = -0.110718
0356  // [861] = 0.104248
F7BA  // [862] = -0.258545
03F4  // [863] = 0.123535
0CE9  // [864] = 0.403442
0A8D  // [865] = 0.329712
02F2  // [866] = 0.092041
FB45  // [867] = -0.147827
F8C8  // [868] = -0.225586
F86F  // [869] = -0.236450
11C3  // [870] = 0.555054
1490  // [871] = 0.642578
110D  // [872] = 0.532837
0376  // [873] = 0.108154
0E26  // [874] = 0.442139
F94E  // [875] = -0.209229
FBFB  // [876] = -0.125610
03CE  // [877] = 0.118896
FF0E  // [878] = -0.029541
0D49  // [879] = 0.415161
FD7D  // [880] = -0.078491
0924  // [881] = 0.285645
FF82  // [882] = -0.015381
F7C4  // [883] = -0.257324
FD04  // [884] = -0.093262
01ED  // [885] = 0.060181
F600  // [886] = -0.312500
F9A2  // [887] = -0.198975
03CA  // [888] = 0.118408
FD68  // [889] = -0.081055
067E  // [890] = 0.202881
0027  // [891] = 0.004761
2255  // [892] = 1.072876
FBE1  // [893] = -0.128784
12F7  // [894] = 0.592651
F887  // [895] = -0.233521
02DE  // [896] = 0.089600
06FE  // [897] = 0.218506
04D6  // [898] = 0.151123
0287  // [899] = 0.078979
FB82  // [900] = -0.140381
0A63  // [901] = 0.324585
0439  // [902] = 0.131958
06E5  // [903] = 0.215454
0156  // [904] = 0.041748
00C3  // [905] = 0.023804
FF01  // [906] = -0.031128
EC21  // [907] = -0.620972
04B3  // [908] = 0.146851
F304  // [909] = -0.405762
E7FC  // [910] = -0.750488
088A  // [911] = 0.266846
0016  // [912] = 0.002686
04EB  // [913] = 0.153687
F67E  // [914] = -0.297119
FD6E  // [915] = -0.080322
FC45  // [916] = -0.116577
01BF  // [917] = 0.054565
04A8  // [918] = 0.145508
F598  // [919] = -0.325195
036D  // [920] = 0.107056
EDD0  // [921] = -0.568359
00ED  // [922] = 0.028931
F7E0  // [923] = -0.253906
00F3  // [924] = 0.029663
FAB6  // [925] = -0.165283
01B4  // [926] = 0.053223
F873  // [927] = -0.235962
F43D  // [928] = -0.367554
F0CE  // [929] = -0.474854
01B8  // [930] = 0.053711
030D  // [931] = 0.095337
04EC  // [932] = 0.153809
0773  // [933] = 0.232788
F289  // [934] = -0.420776
E76C  // [935] = -0.768066
EFC0  // [936] = -0.507812
FEC1  // [937] = -0.038940
F878  // [938] = -0.235352
0696  // [939] = 0.205811
06B6  // [940] = 0.209717
00FE  // [941] = 0.031006
023F  // [942] = 0.070190
F0C0  // [943] = -0.476562
0120  // [944] = 0.035156
F4BA  // [945] = -0.352295
00DE  // [946] = 0.027100
0265  // [947] = 0.074829
022D  // [948] = 0.067993
030B  // [949] = 0.095093
03CF  // [950] = 0.119019
0347  // [951] = 0.102417
FC46  // [952] = -0.116455
02C4  // [953] = 0.086426
F6EA  // [954] = -0.283936
00CB  // [955] = 0.024780
DB0F  // [956] = -1.154419
05A3  // [957] = 0.176147
F0D1  // [958] = -0.474487
075E  // [959] = 0.230225
057F  // [960] = 0.171753
0867  // [961] = 0.262573
0810  // [962] = 0.251953
0505  // [963] = 0.156860
FEF6  // [964] = -0.032471
08BA  // [965] = 0.272705
03AA  // [966] = 0.114502
09A6  // [967] = 0.301514
039B  // [968] = 0.112671
0141  // [969] = 0.039185
FE70  // [970] = -0.048828
E58E  // [971] = -0.826416
0716  // [972] = 0.221436
EED9  // [973] = -0.536011
EDF4  // [974] = -0.563965
0908  // [975] = 0.282227
04B6  // [976] = 0.147217
066C  // [977] = 0.200684
F141  // [978] = -0.460815
FC5F  // [979] = -0.113403
00BB  // [980] = 0.022827
FF9E  // [981] = -0.011963
03F0  // [982] = 0.123047
F52D  // [983] = -0.338257
0262  // [984] = 0.074463
F057  // [985] = -0.489380
FD4A  // [986] = -0.084717
F58C  // [987] = -0.326660
0469  // [988] = 0.137817
FBA7  // [989] = -0.135864
FAF5  // [990] = -0.157593
F7A8  // [991] = -0.260742
EDCD  // [992] = -0.568726
F697  // [993] = -0.294067
017B  // [994] = 0.046265
075C  // [995] = 0.229980
071E  // [996] = 0.222412
08C9  // [997] = 0.274536
FAD1  // [998] = -0.161987
E6D2  // [999] = -0.786865
EEF3  // [1000] = -0.532837
0048  // [1001] = 0.008789
FEB3  // [1002] = -0.040649
09AB  // [1003] = 0.302124
0769  // [1004] = 0.231567
FBB4  // [1005] = -0.134277
03DA  // [1006] = 0.120361
EFAA  // [1007] = -0.510498
076D  // [1008] = 0.232056
F81D  // [1009] = -0.246460
02CA  // [1010] = 0.087158
0677  // [1011] = 0.202026
03F1  // [1012] = 0.123169
0154  // [1013] = 0.041504
0B9D  // [1014] = 0.362915
04F3  // [1015] = 0.154663
FDF5  // [1016] = -0.063843
008A  // [1017] = 0.016846
F877  // [1018] = -0.235474
0169  // [1019] = 0.044067
E24A  // [1020] = -0.928467
08DC  // [1021] = 0.276855
F7AA  // [1022] = -0.260498
0AE8  // [1023] = 0.340820
