// Parameter: fc1.weight
// Shape: [32, 4]
// Format: QS2_13 (16-bit signed, 2 integer bits, 13 fractional bits)
// Range: [-4.000000, 3.999878], Resolution: 7.999878
// Total values: 128
//
1528  // [0] = 0.661133
FE22  // [1] = -0.058350
DD8C  // [2] = -1.076660
F958  // [3] = -0.208008
F5B0  // [4] = -0.322266
02BA  // [5] = 0.085205
1014  // [6] = 0.502441
FB87  // [7] = -0.139771
11F2  // [8] = 0.560791
F583  // [9] = -0.327759
EB6A  // [10] = -0.643311
F02E  // [11] = -0.494385
DBD4  // [12] = -1.130371
E5C6  // [13] = -0.819580
ED71  // [14] = -0.579956
002A  // [15] = 0.005127
2341  // [16] = 1.101685
0DFC  // [17] = 0.437012
105C  // [18] = 0.511230
053E  // [19] = 0.163818
EDB1  // [20] = -0.572144
F78E  // [21] = -0.263916
F0DF  // [22] = -0.472778
FA67  // [23] = -0.174927
FB98  // [24] = -0.137695
F66F  // [25] = -0.298950
0CE9  // [26] = 0.403442
0A55  // [27] = 0.322876
EAB1  // [28] = -0.665894
E392  // [29] = -0.888428
01B4  // [30] = 0.053223
08DE  // [31] = 0.277100
FA6E  // [32] = -0.174072
FCBA  // [33] = -0.102295
EB06  // [34] = -0.655518
FCB1  // [35] = -0.103394
E1C4  // [36] = -0.944824
FC55  // [37] = -0.114624
0357  // [38] = 0.104370
FF79  // [39] = -0.016479
057E  // [40] = 0.171631
0A7E  // [41] = 0.327881
E9CE  // [42] = -0.693604
F25C  // [43] = -0.426270
12D3  // [44] = 0.588257
F9C9  // [45] = -0.194214
D28A  // [46] = -1.420654
F5C5  // [47] = -0.319702
F840  // [48] = -0.242188
FD4F  // [49] = -0.084106
D334  // [50] = -1.399902
FA5C  // [51] = -0.176270
0410  // [52] = 0.126953
F7BF  // [53] = -0.257935
ED42  // [54] = -0.585693
F828  // [55] = -0.245117
E0E8  // [56] = -0.971680
E577  // [57] = -0.829224
E520  // [58] = -0.839844
FE2B  // [59] = -0.057251
0821  // [60] = 0.254028
1093  // [61] = 0.517944
35C8  // [62] = 1.680664
1357  // [63] = 0.604370
FB93  // [64] = -0.138306
F161  // [65] = -0.456909
E272  // [66] = -0.923584
F4D3  // [67] = -0.349243
0465  // [68] = 0.137329
09D2  // [69] = 0.306885
F5C3  // [70] = -0.319946
FA2B  // [71] = -0.182251
15A1  // [72] = 0.675903
F737  // [73] = -0.274536
D5B5  // [74] = -1.321655
EB7A  // [75] = -0.641357
04CE  // [76] = 0.150146
FDDB  // [77] = -0.067017
F5D1  // [78] = -0.318237
FDFD  // [79] = -0.062866
F33A  // [80] = -0.399170
ED67  // [81] = -0.581177
E5CC  // [82] = -0.818848
F3B6  // [83] = -0.384033
131A  // [84] = 0.596924
1F02  // [85] = 0.968994
3479  // [86] = 1.639771
0C9A  // [87] = 0.393799
1793  // [88] = 0.736694
060E  // [89] = 0.189209
FCAC  // [90] = -0.104004
02D3  // [91] = 0.088257
080E  // [92] = 0.251709
FA94  // [93] = -0.169434
F80A  // [94] = -0.248779
FAB1  // [95] = -0.165894
0E63  // [96] = 0.449585
F6A4  // [97] = -0.292480
EF0A  // [98] = -0.530029
F158  // [99] = -0.458008
009B  // [100] = 0.018921
07C5  // [101] = 0.242798
0469  // [102] = 0.137817
017B  // [103] = 0.046265
F62B  // [104] = -0.307251
F63B  // [105] = -0.305298
E886  // [106] = -0.733643
F8F0  // [107] = -0.220703
FD94  // [108] = -0.075684
0885  // [109] = 0.266235
F80E  // [110] = -0.248291
FB71  // [111] = -0.142456
06FD  // [112] = 0.218384
F926  // [113] = -0.214111
D257  // [114] = -1.426880
F2D5  // [115] = -0.411499
0B01  // [116] = 0.343872
F5C1  // [117] = -0.320190
0590  // [118] = 0.173828
012D  // [119] = 0.036743
04A3  // [120] = 0.144897
0941  // [121] = 0.289185
138A  // [122] = 0.610596
06B9  // [123] = 0.210083
053D  // [124] = 0.163696
06BB  // [125] = 0.210327
E01C  // [126] = -0.996582
FB41  // [127] = -0.148315
