// Parameter: fc1.bias
// Shape: [32]
// Format: QS2_13 (16-bit signed, 2 integer bits, 13 fractional bits)
// Range: [-4.000000, 3.999878], Resolution: 7.999878
// Total values: 32
//
0E20  // [0] = 0.441406
19B0  // [1] = 0.802734
0B96  // [2] = 0.362061
004B  // [3] = 0.009155
0B02  // [4] = 0.343994
1A47  // [5] = 0.821167
109B  // [6] = 0.518921
1084  // [7] = 0.516113
0F3A  // [8] = 0.475830
07B3  // [9] = 0.240601
09BB  // [10] = 0.304077
0CAC  // [11] = 0.395996
F535  // [12] = -0.337280
0D09  // [13] = 0.407349
0C44  // [14] = 0.383301
F6B7  // [15] = -0.290161
0BF9  // [16] = 0.374146
10F0  // [17] = 0.529297
0407  // [18] = 0.125854
069D  // [19] = 0.206665
0882  // [20] = 0.265869
1300  // [21] = 0.593750
114D  // [22] = 0.540649
1285  // [23] = 0.578735
155B  // [24] = 0.667358
FF8D  // [25] = -0.014038
10FF  // [26] = 0.531128
F8CE  // [27] = -0.224854
F711  // [28] = -0.279175
F3B7  // [29] = -0.383911
0B53  // [30] = 0.353882
FF90  // [31] = -0.013672
