// Parameter: fc1.weight
// Shape: [32, 4]
// Format: QS2_13 (16-bit signed, 2 integer bits, 13 fractional bits)
// Range: [-4.000000, 3.999878], Resolution: 7.999878
// Total values: 128
//
E63B  // [0] = -0.805298
016A  // [1] = 0.044189
153F  // [2] = 0.663940
02BF  // [3] = 0.085815
07AA  // [4] = 0.239502
F77D  // [5] = -0.265991
F7F6  // [6] = -0.251221
FF7D  // [7] = -0.015991
0101  // [8] = 0.031372
F702  // [9] = -0.281006
FA0D  // [10] = -0.185913
FE38  // [11] = -0.055664
1E45  // [12] = 0.945923
0D8D  // [13] = 0.423462
1409  // [14] = 0.626099
0872  // [15] = 0.263916
F82B  // [16] = -0.244751
0740  // [17] = 0.226562
0D65  // [18] = 0.418579
074C  // [19] = 0.228027
F8AB  // [20] = -0.229126
F037  // [21] = -0.493286
DAD5  // [22] = -1.161499
F1F2  // [23] = -0.439209
06FA  // [24] = 0.218018
F9B0  // [25] = -0.197266
F411  // [26] = -0.372925
00F6  // [27] = 0.030029
F757  // [28] = -0.270630
07DE  // [29] = 0.245850
1278  // [30] = 0.577148
02AA  // [31] = 0.083252
F985  // [32] = -0.202515
FDC9  // [33] = -0.069214
F72E  // [34] = -0.275635
FDB0  // [35] = -0.072266
E5E9  // [36] = -0.815308
F557  // [37] = -0.333130
D6F7  // [38] = -1.282349
F794  // [39] = -0.263184
10D3  // [40] = 0.525757
18B7  // [41] = 0.772339
59C0  // [42] = 2.804688
17D1  // [43] = 0.744263
1702  // [44] = 0.718994
0081  // [45] = 0.015747
FD1D  // [46] = -0.090210
FFBC  // [47] = -0.008301
E692  // [48] = -0.794678
0617  // [49] = 0.190308
0AF3  // [50] = 0.342163
048F  // [51] = 0.142456
E5BC  // [52] = -0.820801
EAF9  // [53] = -0.657104
CE98  // [54] = -1.543945
F03B  // [55] = -0.492798
E407  // [56] = -0.874146
07D4  // [57] = 0.244629
12F5  // [58] = 0.592407
06E8  // [59] = 0.215820
E93B  // [60] = -0.711548
01DE  // [61] = 0.058350
FCE8  // [62] = -0.096680
0250  // [63] = 0.072266
FCAF  // [64] = -0.103638
0345  // [65] = 0.102173
0C22  // [66] = 0.379150
0110  // [67] = 0.033203
F882  // [68] = -0.234131
07D4  // [69] = 0.244629
10DE  // [70] = 0.527100
0042  // [71] = 0.008057
EADB  // [72] = -0.660767
F96C  // [73] = -0.205566
F64A  // [74] = -0.303467
FE94  // [75] = -0.044434
F434  // [76] = -0.368652
0CC5  // [77] = 0.399048
0F4D  // [78] = 0.478149
0ED1  // [79] = 0.463013
F942  // [80] = -0.210693
ED90  // [81] = -0.576172
D013  // [82] = -1.497681
EE5E  // [83] = -0.551025
02DE  // [84] = 0.089600
0243  // [85] = 0.070679
112B  // [86] = 0.536499
0235  // [87] = 0.068970
FEFB  // [88] = -0.031860
0170  // [89] = 0.044922
0820  // [90] = 0.253906
00BB  // [91] = 0.022827
F5B9  // [92] = -0.321167
0B00  // [93] = 0.343750
212C  // [94] = 1.036621
02BD  // [95] = 0.085571
F3EB  // [96] = -0.377563
F6BE  // [97] = -0.289307
EAB9  // [98] = -0.664917
F7D0  // [99] = -0.255859
1F70  // [100] = 0.982422
2366  // [101] = 1.106201
36BB  // [102] = 1.710327
196E  // [103] = 0.794678
0094  // [104] = 0.018066
FD98  // [105] = -0.075195
FCD3  // [106] = -0.099243
FF56  // [107] = -0.020752
FA36  // [108] = -0.180908
F706  // [109] = -0.280518
CAB9  // [110] = -1.664917
F52A  // [111] = -0.338623
FBFD  // [112] = -0.125366
F93A  // [113] = -0.211670
0574  // [114] = 0.170410
0833  // [115] = 0.256226
038F  // [116] = 0.111206
02EA  // [117] = 0.091064
F425  // [118] = -0.370483
F5A0  // [119] = -0.324219
02B4  // [120] = 0.084473
F774  // [121] = -0.267090
EE81  // [122] = -0.546753
0087  // [123] = 0.016479
18B6  // [124] = 0.772217
0E4B  // [125] = 0.446655
D59B  // [126] = -1.324829
FC12  // [127] = -0.122803
