// Parameter: fc1.bias
// Shape: [32]
// Format: QS2_13 (16-bit signed, 2 integer bits, 13 fractional bits)
// Range: [-4.000000, 3.999878], Resolution: 7.999878
// Total values: 32
//
F891  // [0] = -0.232300
E806  // [1] = -0.749268
F7C5  // [2] = -0.257202
0351  // [3] = 0.103638
FBCE  // [4] = -0.131104
275C  // [5] = 1.229980
18DC  // [6] = 0.776855
FD66  // [7] = -0.081299
266C  // [8] = 1.200684
1E0A  // [9] = 0.938721
0A12  // [10] = 0.314697
F6E0  // [11] = -0.285156
F512  // [12] = -0.341553
277D  // [13] = 1.234009
03C6  // [14] = 0.117920
FBE1  // [15] = -0.128784
26AD  // [16] = 1.208618
1398  // [17] = 0.612305
F721  // [18] = -0.277222
1510  // [19] = 0.658203
14E8  // [20] = 0.653320
0A8D  // [21] = 0.329712
1483  // [22] = 0.640991
2796  // [23] = 1.237061
F6B8  // [24] = -0.290039
16C0  // [25] = 0.710938
267D  // [26] = 1.202759
F836  // [27] = -0.243408
F9C8  // [28] = -0.194336
EF4B  // [29] = -0.522095
0B8D  // [30] = 0.360962
F385  // [31] = -0.390015
