// Parameter: fc2.bias
// Shape: [16]
// Format: QS2_13 (16-bit signed, 2 integer bits, 13 fractional bits)
// Range: [-4.000000, 3.999878], Resolution: 7.999878
// Total values: 16
//
1154  // [0] = 0.541504
1956  // [1] = 0.791748
124D  // [2] = 0.571899
1281  // [3] = 0.578247
0DAB  // [4] = 0.427124
F5B0  // [5] = -0.322266
ECDF  // [6] = -0.597778
1144  // [7] = 0.539551
F0E1  // [8] = -0.472534
11A8  // [9] = 0.551758
0D08  // [10] = 0.407227
F05E  // [11] = -0.488525
0B76  // [12] = 0.358154
0D63  // [13] = 0.418335
E8BF  // [14] = -0.726685
0D1B  // [15] = 0.409546
