// Parameter: fc2.bias
// Shape: [16]
// Format: QS2_13 (16-bit signed, 2 integer bits, 13 fractional bits)
// Range: [-4.000000, 3.999878], Resolution: 7.999878
// Total values: 16
//
0BB0  // [0] = 0.365234
F3B2  // [1] = -0.384521
0DB9  // [2] = 0.428833
FC9A  // [3] = -0.106201
F344  // [4] = -0.397949
F521  // [5] = -0.339722
E422  // [6] = -0.870850
F6DC  // [7] = -0.285645
E9B6  // [8] = -0.696533
0CE4  // [9] = 0.402832
E7E6  // [10] = -0.753174
EA9B  // [11] = -0.668579
0C50  // [12] = 0.384766
EE5B  // [13] = -0.551392
0D4D  // [14] = 0.415649
0F4A  // [15] = 0.477783
