// Parameter: fc2.weight
// Shape: [16, 32]
// Format: QS2_13 (16-bit signed, 2 integer bits, 13 fractional bits)
// Range: [-4.000000, 3.999878], Resolution: 7.999878
// Total values: 512
//
030D  // [0] = 0.095337
0C33  // [1] = 0.381226
06C8  // [2] = 0.211914
F933  // [3] = -0.212524
11FA  // [4] = 0.561768
12DA  // [5] = 0.589111
07F1  // [6] = 0.248169
028A  // [7] = 0.079346
065A  // [8] = 0.198486
0789  // [9] = 0.235474
D9C4  // [10] = -1.194824
0A26  // [11] = 0.317139
0332  // [12] = 0.099854
F46B  // [13] = -0.361938
0A9C  // [14] = 0.331543
FA82  // [15] = -0.171631
0A7E  // [16] = 0.327881
0A6A  // [17] = 0.325439
0CA1  // [18] = 0.394653
FFDD  // [19] = -0.004272
09D1  // [20] = 0.306763
0DF1  // [21] = 0.435669
0AD0  // [22] = 0.337891
0E6C  // [23] = 0.450684
0BC5  // [24] = 0.367798
C8CD  // [25] = -1.724976
132A  // [26] = 0.598877
F9B9  // [27] = -0.196167
F1FD  // [28] = -0.437866
EF08  // [29] = -0.530273
0196  // [30] = 0.049561
09A4  // [31] = 0.301270
05B9  // [32] = 0.178833
11B1  // [33] = 0.552856
07DF  // [34] = 0.245972
EF0C  // [35] = -0.529785
090C  // [36] = 0.282715
15FF  // [37] = 0.687378
08BA  // [38] = 0.272705
0A19  // [39] = 0.315552
0D20  // [40] = 0.410156
FB7A  // [41] = -0.141357
DE03  // [42] = -1.062134
1689  // [43] = 0.704224
FC03  // [44] = -0.124634
F4C5  // [45] = -0.350952
06DF  // [46] = 0.214722
FB8E  // [47] = -0.138916
1246  // [48] = 0.571045
0E22  // [49] = 0.441650
04E6  // [50] = 0.153076
FBBA  // [51] = -0.133545
F49D  // [52] = -0.355835
0DE6  // [53] = 0.434326
0D3B  // [54] = 0.413452
0CC1  // [55] = 0.398560
1224  // [56] = 0.566895
C57A  // [57] = -1.828857
136E  // [58] = 0.607178
EFA1  // [59] = -0.511597
F867  // [60] = -0.237427
EC32  // [61] = -0.618896
101B  // [62] = 0.503296
026E  // [63] = 0.075928
0BF5  // [64] = 0.373657
0B9E  // [65] = 0.363037
09FF  // [66] = 0.312378
EAFD  // [67] = -0.656616
0912  // [68] = 0.283447
10C9  // [69] = 0.524536
0F52  // [70] = 0.478760
070D  // [71] = 0.220337
0777  // [72] = 0.233276
F3F9  // [73] = -0.375854
F677  // [74] = -0.297974
0E3E  // [75] = 0.445068
FA5E  // [76] = -0.176025
FCD3  // [77] = -0.099243
06F2  // [78] = 0.217041
07D0  // [79] = 0.244141
0DA4  // [80] = 0.426270
10E9  // [81] = 0.528442
0814  // [82] = 0.252441
06C4  // [83] = 0.211426
F264  // [84] = -0.425293
14D3  // [85] = 0.650757
10AD  // [86] = 0.521118
0A72  // [87] = 0.326416
0FCB  // [88] = 0.493530
B81A  // [89] = -2.246826
19DD  // [90] = 0.808228
F20C  // [91] = -0.436035
F904  // [92] = -0.218262
FA2A  // [93] = -0.182373
0923  // [94] = 0.285522
F3AF  // [95] = -0.384888
FDB8  // [96] = -0.071289
0B74  // [97] = 0.357910
0077  // [98] = 0.014526
FE17  // [99] = -0.059692
0BB1  // [100] = 0.365356
12F8  // [101] = 0.592773
0B3F  // [102] = 0.351440
0936  // [103] = 0.287842
0D4D  // [104] = 0.415649
078C  // [105] = 0.235840
E57D  // [106] = -0.828491
12E4  // [107] = 0.590332
05F9  // [108] = 0.186646
F79A  // [109] = -0.262451
09E7  // [110] = 0.309448
0193  // [111] = 0.049194
09BE  // [112] = 0.304443
034D  // [113] = 0.103149
03EB  // [114] = 0.122437
F56F  // [115] = -0.330200
07C6  // [116] = 0.242920
0ED5  // [117] = 0.463501
0D70  // [118] = 0.419922
0798  // [119] = 0.237305
0B01  // [120] = 0.343872
CB14  // [121] = -1.653809
0FB8  // [122] = 0.491211
F811  // [123] = -0.247925
F2E1  // [124] = -0.410034
F25D  // [125] = -0.426147
0A05  // [126] = 0.313110
0E5E  // [127] = 0.448975
0B92  // [128] = 0.361572
0FE5  // [129] = 0.496704
071F  // [130] = 0.222534
E610  // [131] = -0.810547
049A  // [132] = 0.143799
0C2C  // [133] = 0.380371
0A65  // [134] = 0.324829
0A8F  // [135] = 0.329956
0BE7  // [136] = 0.371948
F431  // [137] = -0.369019
FB8C  // [138] = -0.139160
0E80  // [139] = 0.453125
F852  // [140] = -0.239990
F541  // [141] = -0.335815
030B  // [142] = 0.095093
0E93  // [143] = 0.455444
1031  // [144] = 0.505981
0860  // [145] = 0.261719
07B1  // [146] = 0.240356
0523  // [147] = 0.160522
F0E5  // [148] = -0.472046
1284  // [149] = 0.578613
0C28  // [150] = 0.379883
01E0  // [151] = 0.058594
1033  // [152] = 0.506226
BF15  // [153] = -2.028687
139C  // [154] = 0.612793
F0B0  // [155] = -0.478516
F572  // [156] = -0.329834
F3D3  // [157] = -0.380493
0D34  // [158] = 0.412598
F18C  // [159] = -0.451660
F8FD  // [160] = -0.219116
F0F6  // [161] = -0.469971
FB3E  // [162] = -0.148682
0DF7  // [163] = 0.436401
F3B5  // [164] = -0.384155
F6E8  // [165] = -0.284180
F7FC  // [166] = -0.250488
F91E  // [167] = -0.215088
F8C1  // [168] = -0.226440
FF20  // [169] = -0.027344
1AAB  // [170] = 0.833374
F272  // [171] = -0.423584
FE0A  // [172] = -0.061279
0B3C  // [173] = 0.351074
F9D4  // [174] = -0.192871
FF64  // [175] = -0.019043
F21E  // [176] = -0.433838
F2D7  // [177] = -0.411255
FBB8  // [178] = -0.133789
058E  // [179] = 0.173584
0A71  // [180] = 0.326294
F145  // [181] = -0.460327
F3E9  // [182] = -0.377808
F4E3  // [183] = -0.347290
EEFE  // [184] = -0.531494
41C4  // [185] = 2.055176
F088  // [186] = -0.483398
0F3B  // [187] = 0.475952
0810  // [188] = 0.251953
0A2E  // [189] = 0.318115
F69C  // [190] = -0.293457
0203  // [191] = 0.062866
F8B0  // [192] = -0.228516
F3E2  // [193] = -0.378662
FB54  // [194] = -0.145996
1183  // [195] = 0.547241
F78A  // [196] = -0.264404
F184  // [197] = -0.452637
FA87  // [198] = -0.171021
F436  // [199] = -0.368408
F9F8  // [200] = -0.188477
028A  // [201] = 0.079346
1A7F  // [202] = 0.828003
EE5F  // [203] = -0.550903
FF25  // [204] = -0.026733
0FC1  // [205] = 0.492310
F5A5  // [206] = -0.323608
0251  // [207] = 0.072388
F070  // [208] = -0.486328
F204  // [209] = -0.437012
F8B8  // [210] = -0.227539
0320  // [211] = 0.097656
0918  // [212] = 0.284180
F077  // [213] = -0.485474
F22F  // [214] = -0.431763
F928  // [215] = -0.213867
EC71  // [216] = -0.611206
44F8  // [217] = 2.155273
EEF0  // [218] = -0.533203
0875  // [219] = 0.264282
0AC0  // [220] = 0.335938
1147  // [221] = 0.539917
F7A7  // [222] = -0.260864
00FA  // [223] = 0.030518
004A  // [224] = 0.009033
0D66  // [225] = 0.418701
0565  // [226] = 0.168579
FB5A  // [227] = -0.145264
0FFC  // [228] = 0.499512
0FC5  // [229] = 0.492798
023B  // [230] = 0.069702
0748  // [231] = 0.227539
0469  // [232] = 0.137817
00CF  // [233] = 0.025269
E201  // [234] = -0.937378
0DDA  // [235] = 0.432861
00A3  // [236] = 0.019897
F8EC  // [237] = -0.221191
0902  // [238] = 0.281494
02D2  // [239] = 0.088135
04BC  // [240] = 0.147949
07AE  // [241] = 0.239990
072B  // [242] = 0.223999
F50D  // [243] = -0.342163
04B6  // [244] = 0.147217
0789  // [245] = 0.235474
08EA  // [246] = 0.278564
08A4  // [247] = 0.270020
090C  // [248] = 0.282715
D079  // [249] = -1.485229
0E23  // [250] = 0.441772
F287  // [251] = -0.421021
F3C4  // [252] = -0.382324
F9D1  // [253] = -0.193237
0AA6  // [254] = 0.332764
09D9  // [255] = 0.307739
FBE1  // [256] = -0.128784
F821  // [257] = -0.245972
F7FC  // [258] = -0.250488
1349  // [259] = 0.602661
F376  // [260] = -0.391846
F35F  // [261] = -0.394653
F58A  // [262] = -0.326904
F345  // [263] = -0.397827
F89E  // [264] = -0.230713
0846  // [265] = 0.258545
1822  // [266] = 0.754150
EF95  // [267] = -0.513062
FDBA  // [268] = -0.071045
0BD7  // [269] = 0.369995
FAEA  // [270] = -0.158936
F86E  // [271] = -0.236572
F089  // [272] = -0.483276
EF57  // [273] = -0.520630
FE78  // [274] = -0.047852
FD03  // [275] = -0.093384
0989  // [276] = 0.297974
ECC9  // [277] = -0.600464
F4AE  // [278] = -0.353760
F7DC  // [279] = -0.254395
F4B4  // [280] = -0.353027
418E  // [281] = 2.048584
F0CB  // [282] = -0.475220
0F63  // [283] = 0.480835
0904  // [284] = 0.281738
0A1E  // [285] = 0.316162
F3B2  // [286] = -0.384521
0947  // [287] = 0.289917
06E1  // [288] = 0.214966
114E  // [289] = 0.540771
0BD5  // [290] = 0.369751
E6BC  // [291] = -0.789551
0564  // [292] = 0.168457
108C  // [293] = 0.517090
10AF  // [294] = 0.521362
0803  // [295] = 0.250366
0A7D  // [296] = 0.327759
FA9A  // [297] = -0.168701
F402  // [298] = -0.374756
1599  // [299] = 0.674927
FD20  // [300] = -0.089844
F7D8  // [301] = -0.254883
0A84  // [302] = 0.328613
0746  // [303] = 0.227295
10D0  // [304] = 0.525391
0ED1  // [305] = 0.463013
080C  // [306] = 0.251465
09D6  // [307] = 0.307373
F181  // [308] = -0.453003
114D  // [309] = 0.540649
0F3D  // [310] = 0.476196
0D6E  // [311] = 0.419678
1705  // [312] = 0.719360
BA5B  // [313] = -2.176392
16EA  // [314] = 0.716064
F22C  // [315] = -0.432129
F8DD  // [316] = -0.223022
F703  // [317] = -0.280884
0781  // [318] = 0.234497
F4BE  // [319] = -0.351807
0821  // [320] = 0.254028
0C79  // [321] = 0.389771
0310  // [322] = 0.095703
F4B4  // [323] = -0.353027
1008  // [324] = 0.500977
0B22  // [325] = 0.347900
0A12  // [326] = 0.314697
04FC  // [327] = 0.155762
0BCB  // [328] = 0.368530
0211  // [329] = 0.064575
E171  // [330] = -0.954956
0FA7  // [331] = 0.489136
FFDE  // [332] = -0.004150
F36C  // [333] = -0.393066
09B4  // [334] = 0.303223
0031  // [335] = 0.005981
0795  // [336] = 0.236938
07D2  // [337] = 0.244385
0980  // [338] = 0.296875
FEEC  // [339] = -0.033691
F4F0  // [340] = -0.345703
0BDE  // [341] = 0.370850
0BF3  // [342] = 0.373413
0BA8  // [343] = 0.364258
092E  // [344] = 0.286865
CBD4  // [345] = -1.630371
0D0F  // [346] = 0.408081
F190  // [347] = -0.451172
F333  // [348] = -0.400024
F622  // [349] = -0.308350
08FA  // [350] = 0.280518
F741  // [351] = -0.273315
FB62  // [352] = -0.144287
EEDA  // [353] = -0.535889
F787  // [354] = -0.264771
17DA  // [355] = 0.745361
FB3F  // [356] = -0.148560
EF80  // [357] = -0.515625
F66F  // [358] = -0.298950
F4FF  // [359] = -0.343872
F934  // [360] = -0.212402
0B63  // [361] = 0.355835
10C6  // [362] = 0.524170
EFBD  // [363] = -0.508179
0302  // [364] = 0.093994
0579  // [365] = 0.171021
F854  // [366] = -0.239746
F794  // [367] = -0.263184
F1A8  // [368] = -0.448242
F51F  // [369] = -0.339966
F6F0  // [370] = -0.283203
FA93  // [371] = -0.169556
10CC  // [372] = 0.524902
F26C  // [373] = -0.424316
F098  // [374] = -0.481445
F9EF  // [375] = -0.189575
EBF8  // [376] = -0.625977
42E0  // [377] = 2.089844
E830  // [378] = -0.744141
0CE6  // [379] = 0.403076
0ED5  // [380] = 0.463501
0C4B  // [381] = 0.384155
F798  // [382] = -0.262695
0B88  // [383] = 0.360352
06D3  // [384] = 0.213257
0D0F  // [385] = 0.408081
0075  // [386] = 0.014282
EA41  // [387] = -0.679565
09CC  // [388] = 0.306152
0C7F  // [389] = 0.390503
0964  // [390] = 0.293457
0C70  // [391] = 0.388672
0866  // [392] = 0.262451
FCB5  // [393] = -0.102905
F6F0  // [394] = -0.283203
125D  // [395] = 0.573853
FE39  // [396] = -0.055542
F79C  // [397] = -0.262207
05C6  // [398] = 0.180420
0D52  // [399] = 0.416260
0D74  // [400] = 0.420410
08B6  // [401] = 0.272217
00A9  // [402] = 0.020630
F560  // [403] = -0.332031
F57A  // [404] = -0.328857
0DDE  // [405] = 0.433350
0A20  // [406] = 0.316406
0764  // [407] = 0.230957
11FB  // [408] = 0.561890
C710  // [409] = -1.779297
1536  // [410] = 0.662842
EB72  // [411] = -0.642334
EE05  // [412] = -0.561890
F7F6  // [413] = -0.251221
0E66  // [414] = 0.449951
F1C3  // [415] = -0.444946
03F9  // [416] = 0.124146
0961  // [417] = 0.293091
0602  // [418] = 0.187744
EDD5  // [419] = -0.567749
0988  // [420] = 0.297852
0858  // [421] = 0.260742
0430  // [422] = 0.130859
0D34  // [423] = 0.412598
0688  // [424] = 0.204102
FA29  // [425] = -0.182495
E82A  // [426] = -0.744873
0C10  // [427] = 0.376953
0259  // [428] = 0.073364
F4FD  // [429] = -0.344116
06BC  // [430] = 0.210449
03FD  // [431] = 0.124634
0FA4  // [432] = 0.488770
0DE0  // [433] = 0.433594
08A1  // [434] = 0.269653
0132  // [435] = 0.037354
F943  // [436] = -0.210571
0F93  // [437] = 0.486694
1192  // [438] = 0.549072
0AEC  // [439] = 0.341309
0C68  // [440] = 0.387695
C5A9  // [441] = -1.823120
166A  // [442] = 0.700439
F666  // [443] = -0.300049
F4E5  // [444] = -0.347046
F78F  // [445] = -0.263794
07BA  // [446] = 0.241455
FA11  // [447] = -0.185425
FE10  // [448] = -0.060547
F4C2  // [449] = -0.351318
F80E  // [450] = -0.248291
1375  // [451] = 0.608032
F5B5  // [452] = -0.321655
EEE1  // [453] = -0.535034
F74D  // [454] = -0.271851
F339  // [455] = -0.399292
F6A2  // [456] = -0.292725
004F  // [457] = 0.009644
1B51  // [458] = 0.853638
F226  // [459] = -0.432861
00C2  // [460] = 0.023682
0B60  // [461] = 0.355469
FB11  // [462] = -0.154175
FA4A  // [463] = -0.178467
F1DF  // [464] = -0.441528
F3BA  // [465] = -0.383545
FE67  // [466] = -0.049927
0339  // [467] = 0.100708
0C60  // [468] = 0.386719
F24A  // [469] = -0.428467
EF07  // [470] = -0.530396
F87C  // [471] = -0.234863
ED39  // [472] = -0.586792
3C83  // [473] = 1.890991
EC15  // [474] = -0.622437
0B25  // [475] = 0.348267
1041  // [476] = 0.507935
0B3F  // [477] = 0.351440
F420  // [478] = -0.371094
060D  // [479] = 0.189087
0D05  // [480] = 0.406860
0ABA  // [481] = 0.335205
0179  // [482] = 0.046021
DB27  // [483] = -1.151489
05AD  // [484] = 0.177368
0782  // [485] = 0.234619
00C6  // [486] = 0.024170
05E5  // [487] = 0.184204
061E  // [488] = 0.191162
F0A8  // [489] = -0.479492
091E  // [490] = 0.284912
02F0  // [491] = 0.091797
071F  // [492] = 0.222534
FF13  // [493] = -0.028931
FD19  // [494] = -0.090698
13CF  // [495] = 0.619019
09F0  // [496] = 0.310547
0D81  // [497] = 0.421997
1142  // [498] = 0.539307
1F59  // [499] = 0.979614
EA70  // [500] = -0.673828
0CC3  // [501] = 0.398804
0C7B  // [502] = 0.390015
085B  // [503] = 0.261108
0DFA  // [504] = 0.436768
A4C6  // [505] = -2.850830
0CEC  // [506] = 0.403809
FD1C  // [507] = -0.090332
FFD0  // [508] = -0.005859
00BA  // [509] = 0.022705
FDCF  // [510] = -0.068481
F40C  // [511] = -0.373535
