// Parameter: fc2.weight
// Shape: [16, 32]
// Format: QS2_13 (16-bit signed, 2 integer bits, 13 fractional bits)
// Range: [-4.000000, 3.999878], Resolution: 7.999878
// Total values: 512
//
02BE  // [0] = 0.085693
0397  // [1] = 0.112183
FD11  // [2] = -0.091675
FF5D  // [3] = -0.019897
EC9A  // [4] = -0.606201
14A7  // [5] = 0.645386
0099  // [6] = 0.018677
FBDB  // [7] = -0.129517
0B51  // [8] = 0.353638
05C6  // [9] = 0.180420
003C  // [10] = 0.007324
EEC2  // [11] = -0.538818
EC89  // [12] = -0.608276
0E0F  // [13] = 0.439331
01CB  // [14] = 0.056030
D760  // [15] = -1.269531
0B5B  // [16] = 0.354858
02A9  // [17] = 0.083130
FEAC  // [18] = -0.041504
15E5  // [19] = 0.684204
FEA6  // [20] = -0.042236
FF11  // [21] = -0.029175
FDD4  // [22] = -0.067871
1416  // [23] = 0.627686
EFD7  // [24] = -0.505005
FFF2  // [25] = -0.001709
0B69  // [26] = 0.356567
F64B  // [27] = -0.303345
004B  // [28] = 0.009155
FC34  // [29] = -0.118652
0947  // [30] = 0.289917
F2EA  // [31] = -0.408936
04C9  // [32] = 0.149536
FA49  // [33] = -0.178589
0A11  // [34] = 0.314575
FF95  // [35] = -0.013062
1789  // [36] = 0.735474
EDF2  // [37] = -0.564209
FBBF  // [38] = -0.132935
01F9  // [39] = 0.061646
EB5F  // [40] = -0.644653
F741  // [41] = -0.273315
04D8  // [42] = 0.151367
1BA5  // [43] = 0.863892
16B8  // [44] = 0.709961
EEFF  // [45] = -0.531372
01AD  // [46] = 0.052368
28FC  // [47] = 1.280762
F708  // [48] = -0.280273
F942  // [49] = -0.210693
003B  // [50] = 0.007202
EA22  // [51] = -0.683350
04D0  // [52] = 0.150391
F99B  // [53] = -0.199829
F8C2  // [54] = -0.226318
EF4C  // [55] = -0.521973
11D3  // [56] = 0.557007
F80D  // [57] = -0.248413
F344  // [58] = -0.397949
08E7  // [59] = 0.278198
0752  // [60] = 0.228760
0389  // [61] = 0.110474
F52F  // [62] = -0.338013
11F1  // [63] = 0.560669
F951  // [64] = -0.208862
083E  // [65] = 0.257568
F642  // [66] = -0.304443
FEEE  // [67] = -0.033447
F39D  // [68] = -0.387085
0FBD  // [69] = 0.491821
05D8  // [70] = 0.182617
00D1  // [71] = 0.025513
0FFE  // [72] = 0.499756
06B9  // [73] = 0.210083
FF55  // [74] = -0.020874
E9EA  // [75] = -0.690186
F133  // [76] = -0.462524
1283  // [77] = 0.578491
0161  // [78] = 0.043091
DC83  // [79] = -1.109009
07AD  // [80] = 0.239868
084F  // [81] = 0.259644
FB35  // [82] = -0.149780
1475  // [83] = 0.639282
FDAC  // [84] = -0.072754
04AA  // [85] = 0.145752
076A  // [86] = 0.231689
1043  // [87] = 0.508179
F068  // [88] = -0.487305
0974  // [89] = 0.295410
0DBA  // [90] = 0.428955
FD3E  // [91] = -0.086182
F796  // [92] = -0.262939
FA7C  // [93] = -0.172363
032C  // [94] = 0.099121
EFF3  // [95] = -0.501587
E7F8  // [96] = -0.750977
F945  // [97] = -0.210327
009B  // [98] = 0.018921
076F  // [99] = 0.232300
11CE  // [100] = 0.556396
F404  // [101] = -0.374512
006B  // [102] = 0.013062
F98A  // [103] = -0.201904
F1B3  // [104] = -0.446899
FFF1  // [105] = -0.001831
FEE0  // [106] = -0.035156
25DE  // [107] = 1.183350
0803  // [108] = 0.250366
F27C  // [109] = -0.422363
FB76  // [110] = -0.141846
2F69  // [111] = 1.481567
FE57  // [112] = -0.051880
FF1A  // [113] = -0.028076
00C2  // [114] = 0.023682
E9BD  // [115] = -0.695679
FCA2  // [116] = -0.105225
0385  // [117] = 0.109985
0511  // [118] = 0.158325
F3F9  // [119] = -0.375854
1396  // [120] = 0.612061
0308  // [121] = 0.094727
F755  // [122] = -0.270874
0166  // [123] = 0.043701
FAD6  // [124] = -0.161377
08E9  // [125] = 0.278442
FCA1  // [126] = -0.105347
0CA8  // [127] = 0.395508
FA07  // [128] = -0.186646
F87D  // [129] = -0.234741
0246  // [130] = 0.071045
FF9A  // [131] = -0.012451
16B3  // [132] = 0.709351
ED4A  // [133] = -0.584717
F82B  // [134] = -0.244751
FFCE  // [135] = -0.006104
F492  // [136] = -0.357178
F7EF  // [137] = -0.252075
FD30  // [138] = -0.087891
1784  // [139] = 0.734863
0FE1  // [140] = 0.496216
EE87  // [141] = -0.546021
F942  // [142] = -0.210693
2C47  // [143] = 1.383667
F8E0  // [144] = -0.222656
FE1C  // [145] = -0.059082
015D  // [146] = 0.042603
E8A4  // [147] = -0.729980
FDBA  // [148] = -0.071045
FEC8  // [149] = -0.038086
FB23  // [150] = -0.151978
EDA0  // [151] = -0.574219
103C  // [152] = 0.507324
FAF7  // [153] = -0.157349
F55F  // [154] = -0.332153
09DE  // [155] = 0.308350
0244  // [156] = 0.070801
08A1  // [157] = 0.269653
FBE5  // [158] = -0.128296
0FF5  // [159] = 0.498657
F24B  // [160] = -0.428345
FA88  // [161] = -0.170898
05AB  // [162] = 0.177124
FF20  // [163] = -0.027344
0FEC  // [164] = 0.497559
EC92  // [165] = -0.607178
FB32  // [166] = -0.150146
00B5  // [167] = 0.022095
F3BE  // [168] = -0.383057
FEBE  // [169] = -0.039307
FE89  // [170] = -0.045776
2232  // [171] = 1.068604
1391  // [172] = 0.611450
F287  // [173] = -0.421021
FFAB  // [174] = -0.010376
2948  // [175] = 1.290039
F7AA  // [176] = -0.260498
FD82  // [177] = -0.077881
02A6  // [178] = 0.082764
EDBD  // [179] = -0.570679
FEF8  // [180] = -0.032227
0350  // [181] = 0.103516
FDEF  // [182] = -0.064575
EF48  // [183] = -0.522461
116E  // [184] = 0.544678
FF96  // [185] = -0.012939
EE9A  // [186] = -0.543701
0A00  // [187] = 0.312500
0067  // [188] = 0.012573
08D6  // [189] = 0.276123
F7AB  // [190] = -0.260376
0D5C  // [191] = 0.417480
0225  // [192] = 0.067017
F89B  // [193] = -0.231079
0A6A  // [194] = 0.325439
02F4  // [195] = 0.092285
184C  // [196] = 0.759277
EB40  // [197] = -0.648438
F2D9  // [198] = -0.411011
044C  // [199] = 0.134277
ED9B  // [200] = -0.574829
F545  // [201] = -0.335327
0112  // [202] = 0.033447
1C96  // [203] = 0.893311
15BF  // [204] = 0.679565
EB9B  // [205] = -0.637329
FCD4  // [206] = -0.099121
299C  // [207] = 1.300293
FA69  // [208] = -0.174683
F9B1  // [209] = -0.197144
00FB  // [210] = 0.030640
ED2B  // [211] = -0.588501
FFC3  // [212] = -0.007446
FAE4  // [213] = -0.159668
F6F0  // [214] = -0.283203
E822  // [215] = -0.745850
0E5F  // [216] = 0.449097
F66D  // [217] = -0.299194
E78F  // [218] = -0.763794
0618  // [219] = 0.190430
054D  // [220] = 0.165649
054A  // [221] = 0.165283
F7C2  // [222] = -0.257568
1039  // [223] = 0.506958
167E  // [224] = 0.702881
FC77  // [225] = -0.110474
1189  // [226] = 0.547974
F7DD  // [227] = -0.254272
0D4C  // [228] = 0.415527
F33A  // [229] = -0.399170
F4F7  // [230] = -0.344849
016F  // [231] = 0.044800
F314  // [232] = -0.403809
FD39  // [233] = -0.086792
0187  // [234] = 0.047729
085A  // [235] = 0.260986
146A  // [236] = 0.637939
F587  // [237] = -0.327271
0660  // [238] = 0.199219
1E0A  // [239] = 0.938721
F6FA  // [240] = -0.281982
0245  // [241] = 0.070923
049D  // [242] = 0.144165
F9F7  // [243] = -0.188599
0402  // [244] = 0.125244
FBB1  // [245] = -0.134644
FF45  // [246] = -0.022827
F256  // [247] = -0.427002
0D23  // [248] = 0.410522
F58A  // [249] = -0.326904
F4A4  // [250] = -0.354980
05D5  // [251] = 0.182251
0BDF  // [252] = 0.370972
F285  // [253] = -0.421265
F9CA  // [254] = -0.194092
08C8  // [255] = 0.274414
13E6  // [256] = 0.621826
FFCE  // [257] = -0.006104
1244  // [258] = 0.570801
FB19  // [259] = -0.153198
1022  // [260] = 0.504150
E9C9  // [261] = -0.694214
FABD  // [262] = -0.164429
0858  // [263] = 0.260742
E7B2  // [264] = -0.759521
F507  // [265] = -0.342896
0473  // [266] = 0.139038
0C70  // [267] = 0.388672
167A  // [268] = 0.702393
EFDD  // [269] = -0.504272
FD8A  // [270] = -0.076904
1204  // [271] = 0.562988
F71B  // [272] = -0.277954
FF1A  // [273] = -0.028076
033B  // [274] = 0.100952
F660  // [275] = -0.300781
F8EE  // [276] = -0.220947
FA52  // [277] = -0.177490
FC36  // [278] = -0.118408
F534  // [279] = -0.337402
0A56  // [280] = 0.322998
FD04  // [281] = -0.093262
ECFF  // [282] = -0.593872
08D5  // [283] = 0.276001
0DEF  // [284] = 0.435425
FE84  // [285] = -0.046387
F726  // [286] = -0.276611
0944  // [287] = 0.289551
1A57  // [288] = 0.823120
FF81  // [289] = -0.015503
03DE  // [290] = 0.120850
F265  // [291] = -0.425171
F59D  // [292] = -0.324585
0418  // [293] = 0.127930
0220  // [294] = 0.066406
04FD  // [295] = 0.155884
0922  // [296] = 0.285400
FF7F  // [297] = -0.015747
FC0B  // [298] = -0.123657
E0DA  // [299] = -0.973389
FB27  // [300] = -0.151489
0F78  // [301] = 0.483398
09B6  // [302] = 0.303467
DE3D  // [303] = -1.055054
FEB1  // [304] = -0.040894
0413  // [305] = 0.127319
0027  // [306] = 0.004761
102A  // [307] = 0.505127
00BA  // [308] = 0.022705
F33A  // [309] = -0.399170
FDD1  // [310] = -0.068237
0DED  // [311] = 0.435181
FB3E  // [312] = -0.148682
FE91  // [313] = -0.044800
0C70  // [314] = 0.388672
F768  // [315] = -0.268555
0BCD  // [316] = 0.368774
FC8A  // [317] = -0.108154
FCA6  // [318] = -0.104736
F567  // [319] = -0.331177
EE6D  // [320] = -0.549194
F9AE  // [321] = -0.197510
FC0D  // [322] = -0.123413
08F0  // [323] = 0.279297
129B  // [324] = 0.581421
F331  // [325] = -0.400269
FF2A  // [326] = -0.026123
0019  // [327] = 0.003052
F1E2  // [328] = -0.441162
FD48  // [329] = -0.084961
039B  // [330] = 0.112671
1DAE  // [331] = 0.927490
0CFB  // [332] = 0.405640
F228  // [333] = -0.432617
FA1C  // [334] = -0.184082
2B53  // [335] = 1.353882
FBA6  // [336] = -0.135986
F60B  // [337] = -0.311157
FD57  // [338] = -0.083130
EABD  // [339] = -0.664429
FFFE  // [340] = -0.000244
077E  // [341] = 0.234131
FBD1  // [342] = -0.130737
F06A  // [343] = -0.487061
1163  // [344] = 0.543335
F8B0  // [345] = -0.228516
EA76  // [346] = -0.673096
07E9  // [347] = 0.247192
F77F  // [348] = -0.265747
0439  // [349] = 0.131958
FA9C  // [350] = -0.168457
0C11  // [351] = 0.377075
070F  // [352] = 0.220581
FCBF  // [353] = -0.101685
0D1B  // [354] = 0.409546
00F5  // [355] = 0.029907
16B8  // [356] = 0.709961
F0D7  // [357] = -0.473755
FB1D  // [358] = -0.152710
00DF  // [359] = 0.027222
EFCF  // [360] = -0.505981
FA34  // [361] = -0.181152
FC4E  // [362] = -0.115479
1676  // [363] = 0.701904
18BA  // [364] = 0.772705
F4C7  // [365] = -0.350708
FBE4  // [366] = -0.128418
17A5  // [367] = 0.738892
F9B0  // [368] = -0.197266
F85E  // [369] = -0.238525
05C1  // [370] = 0.179810
F363  // [371] = -0.394165
FE38  // [372] = -0.055664
F751  // [373] = -0.271362
FACE  // [374] = -0.162354
EED7  // [375] = -0.536255
1096  // [376] = 0.518311
F92D  // [377] = -0.213257
EE2D  // [378] = -0.557007
0633  // [379] = 0.193726
0926  // [380] = 0.285889
FD58  // [381] = -0.083008
F737  // [382] = -0.274536
0B6E  // [383] = 0.357178
FAF4  // [384] = -0.157715
06DD  // [385] = 0.214478
F6C7  // [386] = -0.288208
03AB  // [387] = 0.114624
ECF7  // [388] = -0.594849
0FBD  // [389] = 0.491821
06A0  // [390] = 0.207031
FD04  // [391] = -0.093262
0D95  // [392] = 0.424438
0742  // [393] = 0.226807
00E0  // [394] = 0.027344
E885  // [395] = -0.733765
F049  // [396] = -0.491089
0E4F  // [397] = 0.447144
FEB7  // [398] = -0.040161
D94E  // [399] = -1.209229
0B0B  // [400] = 0.345093
02DB  // [401] = 0.089233
0233  // [402] = 0.068726
109B  // [403] = 0.518921
FF22  // [404] = -0.027100
013D  // [405] = 0.038696
0541  // [406] = 0.164185
0FCB  // [407] = 0.493530
ED05  // [408] = -0.593140
0A4E  // [409] = 0.322021
136E  // [410] = 0.607178
F5FE  // [411] = -0.312744
FB5C  // [412] = -0.145020
0099  // [413] = 0.018677
07CC  // [414] = 0.243652
F2FC  // [415] = -0.406738
ED71  // [416] = -0.579956
FD0D  // [417] = -0.092163
03E9  // [418] = 0.122192
098E  // [419] = 0.298584
12A5  // [420] = 0.582642
F431  // [421] = -0.369019
00F4  // [422] = 0.029785
03A8  // [423] = 0.114258
ECFE  // [424] = -0.593994
FA53  // [425] = -0.177368
FD99  // [426] = -0.075073
22F9  // [427] = 1.092896
08E4  // [428] = 0.277832
EB1A  // [429] = -0.653076
F65C  // [430] = -0.301270
28C2  // [431] = 1.273682
FB49  // [432] = -0.147339
F863  // [433] = -0.237915
FFCD  // [434] = -0.006226
E7CE  // [435] = -0.756104
0476  // [436] = 0.139404
0156  // [437] = 0.041748
F9B0  // [438] = -0.197266
F129  // [439] = -0.463745
1163  // [440] = 0.543335
F6C0  // [441] = -0.289062
F09D  // [442] = -0.480835
0468  // [443] = 0.137695
F611  // [444] = -0.310425
044B  // [445] = 0.134155
F9EE  // [446] = -0.189697
0931  // [447] = 0.287231
F233  // [448] = -0.431274
0261  // [449] = 0.074341
F033  // [450] = -0.493774
045E  // [451] = 0.136475
F410  // [452] = -0.373047
155C  // [453] = 0.667480
0CF9  // [454] = 0.405396
008A  // [455] = 0.016846
0B48  // [456] = 0.352539
013B  // [457] = 0.038452
003A  // [458] = 0.007080
FA15  // [459] = -0.184937
EAAD  // [460] = -0.666382
0DD5  // [461] = 0.432251
F6BF  // [462] = -0.289185
E90F  // [463] = -0.716919
0AFF  // [464] = 0.343628
02C0  // [465] = 0.085938
FB73  // [466] = -0.142212
0814  // [467] = 0.252441
FB39  // [468] = -0.149292
0F8E  // [469] = 0.486084
082D  // [470] = 0.255493
1149  // [471] = 0.540161
F430  // [472] = -0.369141
0457  // [473] = 0.135620
0C64  // [474] = 0.387207
FB64  // [475] = -0.144043
F3F5  // [476] = -0.376343
03ED  // [477] = 0.122681
09C3  // [478] = 0.305054
F06F  // [479] = -0.486450
02D7  // [480] = 0.088745
027A  // [481] = 0.077393
FC70  // [482] = -0.111328
F860  // [483] = -0.238281
EBEE  // [484] = -0.627197
13BA  // [485] = 0.616455
043C  // [486] = 0.132324
02A6  // [487] = 0.082764
11A3  // [488] = 0.551147
052A  // [489] = 0.161377
FD87  // [490] = -0.077271
E370  // [491] = -0.892578
EFAE  // [492] = -0.510010
13D9  // [493] = 0.620239
0256  // [494] = 0.072998
D821  // [495] = -1.245972
0AB7  // [496] = 0.334839
090C  // [497] = 0.282715
FA74  // [498] = -0.173340
1856  // [499] = 0.760498
FDE5  // [500] = -0.065796
FEC6  // [501] = -0.038330
05B3  // [502] = 0.178101
0DD7  // [503] = 0.432495
ED61  // [504] = -0.581909
073F  // [505] = 0.226440
1360  // [506] = 0.605469
F55E  // [507] = -0.332275
0179  // [508] = 0.046021
F7C0  // [509] = -0.257812
0828  // [510] = 0.254883
F50C  // [511] = -0.342285
