// Parameter: fc_out.weight
// Shape: [2, 16]
// Format: QS2_13 (16-bit signed, 2 integer bits, 13 fractional bits)
// Range: [-4.000000, 3.999878], Resolution: 7.999878
// Total values: 32
//
0F5E  // [0] = 0.480225
EABA  // [1] = -0.664795
0685  // [2] = 0.203735
EBFB  // [3] = -0.625610
EA8A  // [4] = -0.670654
F069  // [5] = -0.487183
F30F  // [6] = -0.404419
FD34  // [7] = -0.087402
F850  // [8] = -0.240234
114A  // [9] = 0.540283
E725  // [10] = -0.776733
F3F2  // [11] = -0.376709
09A9  // [12] = 0.301880
E83E  // [13] = -0.742432
00D5  // [14] = 0.026001
10A2  // [15] = 0.519775
0BB1  // [16] = 0.365356
E913  // [17] = -0.716431
0A31  // [18] = 0.318481
F9C1  // [19] = -0.195190
EDEC  // [20] = -0.564941
F4C6  // [21] = -0.350830
F199  // [22] = -0.450073
EB39  // [23] = -0.649292
E886  // [24] = -0.733643
FCDB  // [25] = -0.098267
F6EC  // [26] = -0.283691
ED0E  // [27] = -0.592041
0E4C  // [28] = 0.446777
F5DD  // [29] = -0.316772
0E58  // [30] = 0.448242
0B07  // [31] = 0.344604
