// Parameter: fc_out.weight
// Shape: [2, 16]
// Format: QS2_13 (16-bit signed, 2 integer bits, 13 fractional bits)
// Range: [-4.000000, 3.999878], Resolution: 7.999878
// Total values: 32
//
0FF7  // [0] = 0.498901
10F1  // [1] = 0.529419
0C17  // [2] = 0.377808
0C7E  // [3] = 0.390381
08FA  // [4] = 0.280518
E992  // [5] = -0.700928
E999  // [6] = -0.700073
114D  // [7] = 0.540649
E5AD  // [8] = -0.822632
0E30  // [9] = 0.443359
0BDC  // [10] = 0.370605
EEAE  // [11] = -0.541260
065F  // [12] = 0.199097
1241  // [13] = 0.570435
E686  // [14] = -0.796143
11FA  // [15] = 0.561768
03A5  // [16] = 0.113892
0A03  // [17] = 0.312866
13F9  // [18] = 0.624146
0851  // [19] = 0.259888
1405  // [20] = 0.625610
EDE4  // [21] = -0.565918
ECF8  // [22] = -0.594727
07AB  // [23] = 0.239624
E510  // [24] = -0.841797
150D  // [25] = 0.657837
04DF  // [26] = 0.152222
E59D  // [27] = -0.824585
0F63  // [28] = 0.480835
0B16  // [29] = 0.346436
E7B4  // [30] = -0.759277
134F  // [31] = 0.603394
