// Parameter: fc1.bias
// Shape: [32]
// Format: QS2_13 (16-bit signed, 2 integer bits, 13 fractional bits)
// Range: [-4.000000, 3.999878], Resolution: 7.999878
// Total values: 32
//
FFB4  // [0] = -0.009277
0901  // [1] = 0.281372
1999  // [2] = 0.799927
16BC  // [3] = 0.710449
17C4  // [4] = 0.742676
01A5  // [5] = 0.051392
0FAD  // [6] = 0.489868
041C  // [7] = 0.128418
117A  // [8] = 0.546143
F94C  // [9] = -0.209473
FDD3  // [10] = -0.067993
16A7  // [11] = 0.707886
FB32  // [12] = -0.150146
098E  // [13] = 0.298584
0678  // [14] = 0.202148
1267  // [15] = 0.575073
2512  // [16] = 1.158447
1838  // [17] = 0.756836
F86F  // [18] = -0.236450
047F  // [19] = 0.140503
15C9  // [20] = 0.680786
0C4C  // [21] = 0.384277
1B1E  // [22] = 0.847412
0B01  // [23] = 0.343872
F9E4  // [24] = -0.190918
1C0E  // [25] = 0.876709
0D08  // [26] = 0.407227
FFE8  // [27] = -0.002930
1A3E  // [28] = 0.820068
2A7D  // [29] = 1.327759
1616  // [30] = 0.690186
076E  // [31] = 0.232178
