// Parameter: fc1.weight
// Shape: [32, 4]
// Format: QS3_12 (16-bit signed, 3 integer bits, 12 fractional bits)
// Range: [-8.000000, 7.999756], Resolution: 15.999756
// Total values: 128
//
EECF  // [0] = -1.074463
FFD2  // [1] = -0.011230
F1DB  // [2] = -0.884033
01BC  // [3] = 0.108398
F637  // [4] = -0.611572
F95F  // [5] = -0.414307
EB52  // [6] = -1.292480
FB5C  // [7] = -0.290039
0829  // [8] = 0.510010
0C45  // [9] = 0.766846
10DE  // [10] = 1.054199
FC44  // [11] = -0.233398
E1CC  // [12] = -1.887695
E599  // [13] = -1.650146
E21A  // [14] = -1.868652
ED84  // [15] = -1.155273
FA95  // [16] = -0.338623
F6FE  // [17] = -0.562988
CC0A  // [18] = -3.247559
F457  // [19] = -0.728760
F957  // [20] = -0.416260
F739  // [21] = -0.548584
C586  // [22] = -3.654785
EF5D  // [23] = -1.039795
F225  // [24] = -0.865967
FC37  // [25] = -0.236572
F4C4  // [26] = -0.702148
FFA9  // [27] = -0.021240
F535  // [28] = -0.674561
FFB8  // [29] = -0.017578
D08E  // [30] = -2.965332
EED3  // [31] = -1.073486
EB56  // [32] = -1.291504
FB09  // [33] = -0.310303
2A46  // [34] = 2.642090
09A3  // [35] = 0.602295
03CE  // [36] = 0.237793
00A8  // [37] = 0.041016
FEAC  // [38] = -0.083008
FF0B  // [39] = -0.059814
E44B  // [40] = -1.731689
FA6B  // [41] = -0.348877
0BFD  // [42] = 0.749268
0B0E  // [43] = 0.690918
F92C  // [44] = -0.426758
0073  // [45] = 0.028076
DC5D  // [46] = -2.227295
F7FE  // [47] = -0.500488
FFA3  // [48] = -0.022705
F95A  // [49] = -0.415527
D273  // [50] = -2.846924
F63F  // [51] = -0.609619
EAD4  // [52] = -1.323242
E7CF  // [53] = -1.511963
D05B  // [54] = -2.977783
EEDE  // [55] = -1.070801
F02E  // [56] = -0.988770
FC58  // [57] = -0.228516
2340  // [58] = 2.203125
0B0E  // [59] = 0.690918
01D9  // [60] = 0.115479
02E7  // [61] = 0.181396
0517  // [62] = 0.318115
00FD  // [63] = 0.061768
0651  // [64] = 0.394775
0119  // [65] = 0.068604
03EB  // [66] = 0.244873
FF5C  // [67] = -0.040039
F530  // [68] = -0.675781
0041  // [69] = 0.015869
FD17  // [70] = -0.181885
02FD  // [71] = 0.186768
DB9A  // [72] = -2.274902
EFE0  // [73] = -1.007812
0B23  // [74] = 0.696045
0675  // [75] = 0.403564
F477  // [76] = -0.720947
FDF9  // [77] = -0.126709
2D5A  // [78] = 2.834473
1371  // [79] = 1.215088
1688  // [80] = 1.408203
112D  // [81] = 1.073486
0548  // [82] = 0.330078
F730  // [83] = -0.550781
F66D  // [84] = -0.598389
FF4C  // [85] = -0.043945
D22B  // [86] = -2.864502
F3B4  // [87] = -0.768555
F953  // [88] = -0.417236
FE47  // [89] = -0.107666
CCE1  // [90] = -3.195068
F718  // [91] = -0.556641
FD39  // [92] = -0.173584
F9BD  // [93] = -0.391357
D2E6  // [94] = -2.818848
F7FE  // [95] = -0.500488
FF9C  // [96] = -0.024414
026D  // [97] = 0.151611
0A43  // [98] = 0.641357
0370  // [99] = 0.214844
0F5F  // [100] = 0.960693
072E  // [101] = 0.448730
00E5  // [102] = 0.055908
003E  // [103] = 0.015137
FFDF  // [104] = -0.008057
FA5D  // [105] = -0.352295
D65F  // [106] = -2.601807
F74D  // [107] = -0.543701
0130  // [108] = 0.074219
01BF  // [109] = 0.109131
06F1  // [110] = 0.433838
FEE0  // [111] = -0.070312
0A23  // [112] = 0.633545
09AB  // [113] = 0.604248
04A9  // [114] = 0.291260
066B  // [115] = 0.401123
FDFC  // [116] = -0.125977
F7F4  // [117] = -0.502930
BCAD  // [118] = -4.207764
F081  // [119] = -0.968506
FF93  // [120] = -0.026611
F6DA  // [121] = -0.571777
B579  // [122] = -4.657959
EA8F  // [123] = -1.340088
1026  // [124] = 1.009277
141B  // [125] = 1.256592
FFE4  // [126] = -0.006836
0D54  // [127] = 0.833008
