// Parameter: fc1.weight
// Shape: [64, 4]
// Format: QS2_13 (16-bit signed, 2 integer bits, 13 fractional bits)
// Range: [-4.000000, 3.999878], Resolution: 7.999878
// Total values: 256
//
EFFC  // [0] = -0.500488
FA25  // [1] = -0.182983
F286  // [2] = -0.421143
FC0B  // [3] = -0.123657
0B00  // [4] = 0.343750
022C  // [5] = 0.067871
0B9E  // [6] = 0.363037
01BE  // [7] = 0.054443
FA1F  // [8] = -0.183716
F8BC  // [9] = -0.227051
FB64  // [10] = -0.144043
0298  // [11] = 0.081055
FA72  // [12] = -0.173584
01E0  // [13] = 0.058594
012D  // [14] = 0.036743
F8AB  // [15] = -0.229126
FD66  // [16] = -0.081299
F8D5  // [17] = -0.223999
F05A  // [18] = -0.489014
F753  // [19] = -0.271118
08EC  // [20] = 0.278809
07D2  // [21] = 0.244385
0DF3  // [22] = 0.435913
0698  // [23] = 0.206055
FE88  // [24] = -0.045898
0461  // [25] = 0.136841
01DF  // [26] = 0.058472
F6F4  // [27] = -0.282715
04BA  // [28] = 0.147705
FD11  // [29] = -0.091675
0007  // [30] = 0.000854
0286  // [31] = 0.078857
F900  // [32] = -0.218750
00F4  // [33] = 0.029785
F82B  // [34] = -0.244751
042E  // [35] = 0.130615
0103  // [36] = 0.031616
0A78  // [37] = 0.327148
FA50  // [38] = -0.177734
F2A8  // [39] = -0.416992
FDD4  // [40] = -0.067871
F3C4  // [41] = -0.382324
EBD7  // [42] = -0.630005
0597  // [43] = 0.174683
276F  // [44] = 1.232300
1A58  // [45] = 0.823242
42AA  // [46] = 2.083252
14B9  // [47] = 0.647583
0106  // [48] = 0.031982
FE17  // [49] = -0.059692
0182  // [50] = 0.047119
F5DB  // [51] = -0.317017
0DBF  // [52] = 0.429565
FAEF  // [53] = -0.158325
EE94  // [54] = -0.544434
F5DE  // [55] = -0.316650
0CAA  // [56] = 0.395752
0ABA  // [57] = 0.335205
1F60  // [58] = 0.980469
08EC  // [59] = 0.278809
0211  // [60] = 0.064575
0ADF  // [61] = 0.339722
01B4  // [62] = 0.053223
007A  // [63] = 0.014893
02AD  // [64] = 0.083618
0028  // [65] = 0.004883
FD9F  // [66] = -0.074341
07A0  // [67] = 0.238281
0B83  // [68] = 0.359741
02AA  // [69] = 0.083252
FA6E  // [70] = -0.174072
0107  // [71] = 0.032104
0CAA  // [72] = 0.395752
015D  // [73] = 0.042603
F244  // [74] = -0.429199
FA3A  // [75] = -0.180420
EDFE  // [76] = -0.562744
090E  // [77] = 0.282959
09B1  // [78] = 0.302856
F53D  // [79] = -0.336304
1270  // [80] = 0.576172
F74A  // [81] = -0.272217
F315  // [82] = -0.403687
039F  // [83] = 0.113159
0926  // [84] = 0.285889
0C66  // [85] = 0.387451
0953  // [86] = 0.291382
FCE9  // [87] = -0.096558
218A  // [88] = 1.048096
18C7  // [89] = 0.774292
1AD5  // [90] = 0.838501
06D5  // [91] = 0.213501
F39A  // [92] = -0.387451
FD15  // [93] = -0.091187
FD26  // [94] = -0.089111
FF1D  // [95] = -0.027710
F9C0  // [96] = -0.195312
090E  // [97] = 0.282959
07C1  // [98] = 0.242310
FCF6  // [99] = -0.094971
EA87  // [100] = -0.671021
01CF  // [101] = 0.056519
FF62  // [102] = -0.019287
02BF  // [103] = 0.085815
0576  // [104] = 0.170654
EFF6  // [105] = -0.501221
E3EB  // [106] = -0.877563
0356  // [107] = 0.104248
0337  // [108] = 0.100464
F7E3  // [109] = -0.253540
1E4B  // [110] = 0.946655
00F2  // [111] = 0.029541
05B9  // [112] = 0.178833
F5F8  // [113] = -0.313477
0595  // [114] = 0.174438
02D3  // [115] = 0.088257
F7E5  // [116] = -0.253296
FB80  // [117] = -0.140625
F2A5  // [118] = -0.417358
F773  // [119] = -0.267212
0CCE  // [120] = 0.400146
FDD3  // [121] = -0.067993
F41A  // [122] = -0.371826
0500  // [123] = 0.156250
090E  // [124] = 0.282959
0403  // [125] = 0.125366
F0DF  // [126] = -0.472778
FB4C  // [127] = -0.146973
0AA3  // [128] = 0.332397
0B77  // [129] = 0.358276
1F41  // [130] = 0.976685
09E7  // [131] = 0.309448
1D41  // [132] = 0.914185
17F9  // [133] = 0.749146
2D67  // [134] = 1.418823
1434  // [135] = 0.631348
1C3A  // [136] = 0.882080
0241  // [137] = 0.070435
EC6F  // [138] = -0.611450
FA5E  // [139] = -0.176025
FFB2  // [140] = -0.009521
FD64  // [141] = -0.081543
FA1B  // [142] = -0.184204
0196  // [143] = 0.049561
072A  // [144] = 0.223877
FC59  // [145] = -0.114136
F6D9  // [146] = -0.286011
FC84  // [147] = -0.108887
F236  // [148] = -0.430908
0408  // [149] = 0.125977
03CF  // [150] = 0.119019
0389  // [151] = 0.110474
11D0  // [152] = 0.556641
FBED  // [153] = -0.127319
DDB9  // [154] = -1.071167
F803  // [155] = -0.249634
176F  // [156] = 0.732300
F971  // [157] = -0.204956
E095  // [158] = -0.981812
F576  // [159] = -0.329346
1D80  // [160] = 0.921875
0646  // [161] = 0.196045
017B  // [162] = 0.046265
026E  // [163] = 0.075928
FE73  // [164] = -0.048462
0786  // [165] = 0.235107
F08E  // [166] = -0.482666
F96F  // [167] = -0.205200
0778  // [168] = 0.233398
FBD9  // [169] = -0.129761
E703  // [170] = -0.780884
FA23  // [171] = -0.183228
047B  // [172] = 0.140015
063F  // [173] = 0.195190
02CF  // [174] = 0.087769
FC6D  // [175] = -0.111694
044C  // [176] = 0.134277
0121  // [177] = 0.035278
00DC  // [178] = 0.026855
09D9  // [179] = 0.307739
EF0B  // [180] = -0.529907
FA2C  // [181] = -0.182129
F32C  // [182] = -0.400879
FF7E  // [183] = -0.015869
F63E  // [184] = -0.304932
F473  // [185] = -0.360962
F4AB  // [186] = -0.354126
F65A  // [187] = -0.301514
1A3D  // [188] = 0.819946
072A  // [189] = 0.223877
23D1  // [190] = 1.119263
0445  // [191] = 0.133423
07C1  // [192] = 0.242310
F5F5  // [193] = -0.313843
F8F7  // [194] = -0.219849
0221  // [195] = 0.066528
FB55  // [196] = -0.145874
FAD2  // [197] = -0.161865
1679  // [198] = 0.702271
0291  // [199] = 0.080200
0334  // [200] = 0.100098
0AAA  // [201] = 0.333252
FD6D  // [202] = -0.080444
F968  // [203] = -0.206055
054B  // [204] = 0.165405
09E2  // [205] = 0.308838
0B03  // [206] = 0.344116
0722  // [207] = 0.222900
F93B  // [208] = -0.211548
0561  // [209] = 0.168091
0634  // [210] = 0.193848
FED7  // [211] = -0.036255
01F4  // [212] = 0.061035
F906  // [213] = -0.218018
EB49  // [214] = -0.647339
F163  // [215] = -0.456665
08D3  // [216] = 0.275757
F7B4  // [217] = -0.259277
011A  // [218] = 0.034424
F9F0  // [219] = -0.189453
01DC  // [220] = 0.058105
F819  // [221] = -0.246948
0198  // [222] = 0.049805
0D02  // [223] = 0.406494
07F4  // [224] = 0.248535
05F9  // [225] = 0.186646
F30B  // [226] = -0.404907
F4FF  // [227] = -0.343872
FF70  // [228] = -0.017578
F89B  // [229] = -0.231079
01FC  // [230] = 0.062012
017C  // [231] = 0.046387
F6DE  // [232] = -0.285400
FABA  // [233] = -0.164795
F457  // [234] = -0.364380
FE56  // [235] = -0.052002
F687  // [236] = -0.296021
F5FA  // [237] = -0.313232
008B  // [238] = 0.016968
012F  // [239] = 0.036987
FDBB  // [240] = -0.070923
00CC  // [241] = 0.024902
E541  // [242] = -0.835815
FEE5  // [243] = -0.034546
01BF  // [244] = 0.054565
FDF7  // [245] = -0.063599
0606  // [246] = 0.188232
0464  // [247] = 0.137207
03E8  // [248] = 0.122070
F935  // [249] = -0.212280
E1D2  // [250] = -0.943115
F7C9  // [251] = -0.256714
FC37  // [252] = -0.118286
071D  // [253] = 0.222290
02BC  // [254] = 0.085449
0540  // [255] = 0.164062
