// Parameter: fc1.bias
// Shape: [64]
// Format: QS2_13 (16-bit signed, 2 integer bits, 13 fractional bits)
// Range: [-4.000000, 3.999878], Resolution: 7.999878
// Total values: 64
//
0E9F  // [0] = 0.456909
0D6B  // [1] = 0.419312
138A  // [2] = 0.610596
1154  // [3] = 0.541504
0499  // [4] = 0.143677
0E3D  // [5] = 0.444946
110B  // [6] = 0.532593
0E33  // [7] = 0.443726
1001  // [8] = 0.500122
F600  // [9] = -0.312500
F400  // [10] = -0.375000
F413  // [11] = -0.372681
149E  // [12] = 0.644287
F6BF  // [13] = -0.289185
FBB9  // [14] = -0.133667
1386  // [15] = 0.610107
08EF  // [16] = 0.279175
18E8  // [17] = 0.778320
F608  // [18] = -0.311523
F636  // [19] = -0.305908
0608  // [20] = 0.188477
0515  // [21] = 0.158813
0D14  // [22] = 0.408691
FB1D  // [23] = -0.152710
0B83  // [24] = 0.359741
F74F  // [25] = -0.271606
FBF1  // [26] = -0.126831
F38C  // [27] = -0.389160
1215  // [28] = 0.565063
0080  // [29] = 0.015625
F48A  // [30] = -0.358154
F540  // [31] = -0.335938
FCBB  // [32] = -0.102173
05CB  // [33] = 0.181030
F941  // [34] = -0.210815
0A78  // [35] = 0.327148
FF53  // [36] = -0.021118
17F6  // [37] = 0.748779
F7D3  // [38] = -0.255493
F558  // [39] = -0.333008
F6A7  // [40] = -0.292114
F919  // [41] = -0.215698
FC06  // [42] = -0.124268
12FA  // [43] = 0.593018
1505  // [44] = 0.656860
FE34  // [45] = -0.056152
02AF  // [46] = 0.083862
F884  // [47] = -0.233887
0A3D  // [48] = 0.319946
F63A  // [49] = -0.305420
F9DF  // [50] = -0.191528
0BA7  // [51] = 0.364136
0DA8  // [52] = 0.426758
F7F4  // [53] = -0.251465
107C  // [54] = 0.515137
0DA3  // [55] = 0.426147
F402  // [56] = -0.374756
0F65  // [57] = 0.481079
00D3  // [58] = 0.025757
0711  // [59] = 0.220825
FCA0  // [60] = -0.105469
1937  // [61] = 0.787964
F62B  // [62] = -0.307251
0D97  // [63] = 0.424683
