// Parameter: fc2.bias
// Shape: [16]
// Format: QS2_13 (16-bit signed, 2 integer bits, 13 fractional bits)
// Range: [-4.000000, 3.999878], Resolution: 7.999878
// Total values: 16
//
F740  // [0] = -0.273438
0474  // [1] = 0.139160
F64C  // [2] = -0.303223
0207  // [3] = 0.063354
F613  // [4] = -0.310181
0AB9  // [5] = 0.335083
082A  // [6] = 0.255127
F7AC  // [7] = -0.260254
F705  // [8] = -0.280640
F58E  // [9] = -0.326416
F65E  // [10] = -0.301025
F793  // [11] = -0.263306
F9D3  // [12] = -0.192993
F6B7  // [13] = -0.290161
07E3  // [14] = 0.246460
0C60  // [15] = 0.386719
