// Q-accumulator test weights
// NUM_ACTIONS=2, NUM_NEURONS=4
// Layout: weights_flat[a * NUM_NEURONS + n]
// Action 0 weights (neurons 0-3): 0.5, 0.25, -0.25, -0.5
// Action 1 weights (neurons 0-3): -0.5, 0.5, 0.25, -0.25
1000  // w[0][0] = 0.5 * 8192 = 4096, but using smaller for headroom
0800  // w[0][1] = 0.25 * 8192 = 2048
FE00  // w[0][2] = -0.25 * 8192 = -2048 (0xFE00 in 16-bit signed)
FC00  // w[0][3] = -0.5 * 8192 = -4096 (0xFC00 in 16-bit signed)
FC00  // w[1][0] = -0.5
1000  // w[1][1] = 0.5
0800  // w[1][2] = 0.25
FE00  // w[1][3] = -0.25
